{
  "version": "1.0",
  "truncation": null,
  "padding": null,
  "added_tokens": [
    {
      "id": 0,
      "content": "[UNK]",
      "single_word": false,
      "lstrip": false,
      "rstrip": false,
      "normalized": false,
      "special": true
    },
    {
      "id": 1,
      "content": "[PAD]",
      "single_word": false,
      "lstrip": false,
      "rstrip": false,
      "normalized": false,
      "special": true
    }
  ],
  "normalizer": null,
  "pre_tokenizer": {
    "type": "Whitespace"
  },
  "post_processor": null,
  "decoder": null,
  "model": {
    "type": "BPE",
    "dropout": null,
    "unk_token": "[UNK]",
    "continuing_subword_prefix": null,
    "end_of_word_suffix": null,
    "fuse_unk": false,
    "byte_fallback": false,
    "ignore_merges": false,
    "vocab": {
      "[UNK]": 0,
      "[PAD]": 1,
      "!": 2,
      "\"": 3,
      "#": 4,
      "$": 5,
      "%": 6,
      "&": 7,
      "'": 8,
      "(": 9,
      ")": 10,
      "*": 11,
      "+": 12,
      ",": 13,
      "-": 14,
      ".": 15,
      "/": 16,
      "0": 17,
      "1": 18,
      "2": 19,
      "3": 20,
      "4": 21,
      "5": 22,
      "6": 23,
      "7": 24,
      "8": 25,
      "9": 26,
      ":": 27,
      ";": 28,
      "<": 29,
      "=": 30,
      ">": 31,
      "?": 32,
      "@": 33,
      "A": 34,
      "B": 35,
      "C": 36,
      "D": 37,
      "E": 38,
      "F": 39,
      "G": 40,
      "H": 41,
      "I": 42,
      "J": 43,
      "K": 44,
      "L": 45,
      "M": 46,
      "N": 47,
      "O": 48,
      "P": 49,
      "Q": 50,
      "R": 51,
      "S": 52,
      "T": 53,
      "U": 54,
      "V": 55,
      "W": 56,
      "X": 57,
      "Y": 58,
      "Z": 59,
      "[": 60,
      "\\": 61,
      "]": 62,
      "^": 63,
      "_": 64,
      "`": 65,
      "a": 66,
      "b": 67,
      "c": 68,
      "d": 69,
      "e": 70,
      "f": 71,
      "g": 72,
      "h": 73,
      "i": 74,
      "j": 75,
      "k": 76,
      "l": 77,
      "m": 78,
      "n": 79,
      "o": 80,
      "p": 81,
      "q": 82,
      "r": 83,
      "s": 84,
      "t": 85,
      "u": 86,
      "v": 87,
      "w": 88,
      "x": 89,
      "y": 90,
      "z": 91,
      "{": 92,
      "|": 93,
      "}": 94,
      "~": 95,
      "": 96,
      "": 97,
      "": 98,
      "": 99,
      "": 100,
      "": 101,
      "¡": 102,
      "¢": 103,
      "£": 104,
      "¤": 105,
      "¥": 106,
      "§": 107,
      "©": 108,
      "«": 109,
      "­": 110,
      "®": 111,
      "¯": 112,
      "°": 113,
      "±": 114,
      "²": 115,
      "³": 116,
      "´": 117,
      "µ": 118,
      "¶": 119,
      "·": 120,
      "¹": 121,
      "º": 122,
      "»": 123,
      "¼": 124,
      "½": 125,
      "¾": 126,
      "¿": 127,
      "À": 128,
      "Á": 129,
      "Â": 130,
      "Ä": 131,
      "Å": 132,
      "Æ": 133,
      "Ç": 134,
      "È": 135,
      "É": 136,
      "Ê": 137,
      "Ë": 138,
      "Ì": 139,
      "Í": 140,
      "Î": 141,
      "Ï": 142,
      "Ð": 143,
      "Ñ": 144,
      "Ò": 145,
      "Ó": 146,
      "Ô": 147,
      "Õ": 148,
      "Ö": 149,
      "×": 150,
      "Ø": 151,
      "Ù": 152,
      "Ú": 153,
      "Ü": 154,
      "Ý": 155,
      "Þ": 156,
      "ß": 157,
      "à": 158,
      "á": 159,
      "â": 160,
      "ã": 161,
      "ä": 162,
      "å": 163,
      "æ": 164,
      "ç": 165,
      "è": 166,
      "é": 167,
      "ê": 168,
      "ë": 169,
      "ì": 170,
      "í": 171,
      "î": 172,
      "ï": 173,
      "ð": 174,
      "ñ": 175,
      "ò": 176,
      "ó": 177,
      "ô": 178,
      "õ": 179,
      "ö": 180,
      "÷": 181,
      "ø": 182,
      "ù": 183,
      "ú": 184,
      "û": 185,
      "ü": 186,
      "ý": 187,
      "þ": 188,
      "ÿ": 189,
      "Ā": 190,
      "ā": 191,
      "Ă": 192,
      "ă": 193,
      "ą": 194,
      "Ć": 195,
      "ć": 196,
      "ĉ": 197,
      "Ċ": 198,
      "ċ": 199,
      "Č": 200,
      "č": 201,
      "Ď": 202,
      "ď": 203,
      "Đ": 204,
      "đ": 205,
      "Ē": 206,
      "ē": 207,
      "Ĕ": 208,
      "ĕ": 209,
      "Ė": 210,
      "ė": 211,
      "ę": 212,
      "Ě": 213,
      "ě": 214,
      "ğ": 215,
      "Ġ": 216,
      "ġ": 217,
      "Ģ": 218,
      "ģ": 219,
      "Ĥ": 220,
      "Ħ": 221,
      "ħ": 222,
      "ĩ": 223,
      "Ī": 224,
      "ī": 225,
      "ĭ": 226,
      "į": 227,
      "İ": 228,
      "ı": 229,
      "ĵ": 230,
      "Ķ": 231,
      "ķ": 232,
      "ĸ": 233,
      "ĺ": 234,
      "ļ": 235,
      "Ľ": 236,
      "ľ": 237,
      "Ł": 238,
      "ł": 239,
      "ń": 240,
      "ņ": 241,
      "ň": 242,
      "Ŋ": 243,
      "ŋ": 244,
      "Ō": 245,
      "ō": 246,
      "ŏ": 247,
      "ő": 248,
      "Œ": 249,
      "œ": 250,
      "Ŗ": 251,
      "ŗ": 252,
      "Ř": 253,
      "ř": 254,
      "Ś": 255,
      "ś": 256,
      "Ŝ": 257,
      "Ş": 258,
      "ş": 259,
      "Š": 260,
      "š": 261,
      "Ţ": 262,
      "ţ": 263,
      "ť": 264,
      "ŧ": 265,
      "ũ": 266,
      "Ū": 267,
      "ū": 268,
      "ŭ": 269,
      "ů": 270,
      "ű": 271,
      "ų": 272,
      "ŵ": 273,
      "ŷ": 274,
      "Ź": 275,
      "ź": 276,
      "Ż": 277,
      "ż": 278,
      "Ž": 279,
      "ž": 280,
      "ſ": 281,
      "ƀ": 282,
      "Ɔ": 283,
      "Ƈ": 284,
      "ƈ": 285,
      "Ɖ": 286,
      "ƍ": 287,
      "Ǝ": 288,
      "Ə": 289,
      "Ɛ": 290,
      "ƒ": 291,
      "Ɣ": 292,
      "ƙ": 293,
      "ƛ": 294,
      "ơ": 295,
      "Ƣ": 296,
      "ƥ": 297,
      "ƭ": 298,
      "ư": 299,
      "Ʋ": 300,
      "ƿ": 301,
      "ǀ": 302,
      "ǁ": 303,
      "ǂ": 304,
      "ǃ": 305,
      "ǎ": 306,
      "ǐ": 307,
      "Ǒ": 308,
      "ǒ": 309,
      "ǔ": 310,
      "ǚ": 311,
      "ǜ": 312,
      "ǝ": 313,
      "Ǣ": 314,
      "ǣ": 315,
      "Ǧ": 316,
      "ǧ": 317,
      "Ǫ": 318,
      "ǫ": 319,
      "ǭ": 320,
      "ǰ": 321,
      "ǵ": 322,
      "Ƿ": 323,
      "Ǹ": 324,
      "ǹ": 325,
      "ǽ": 326,
      "Ș": 327,
      "ș": 328,
      "Ț": 329,
      "ț": 330,
      "Ȝ": 331,
      "ȝ": 332,
      "ȟ": 333,
      "ȯ": 334,
      "ȳ": 335,
      "ȷ": 336,
      "ȼ": 337,
      "Ɉ": 338,
      "ɐ": 339,
      "ɑ": 340,
      "ɒ": 341,
      "ɓ": 342,
      "ɔ": 343,
      "ɕ": 344,
      "ɖ": 345,
      "ɗ": 346,
      "ɘ": 347,
      "ə": 348,
      "ɚ": 349,
      "ɛ": 350,
      "ɜ": 351,
      "ɞ": 352,
      "ɟ": 353,
      "ɠ": 354,
      "ɡ": 355,
      "ɢ": 356,
      "ɣ": 357,
      "ɤ": 358,
      "ɥ": 359,
      "ɦ": 360,
      "ɧ": 361,
      "ɨ": 362,
      "ɪ": 363,
      "ɫ": 364,
      "ɬ": 365,
      "ɭ": 366,
      "ɮ": 367,
      "ɯ": 368,
      "ɰ": 369,
      "ɱ": 370,
      "ɲ": 371,
      "ɳ": 372,
      "ɴ": 373,
      "ɵ": 374,
      "ɶ": 375,
      "ɷ": 376,
      "ɸ": 377,
      "ɹ": 378,
      "ɺ": 379,
      "ɻ": 380,
      "ɽ": 381,
      "ɾ": 382,
      "ʀ": 383,
      "ʁ": 384,
      "ʂ": 385,
      "ʃ": 386,
      "ʄ": 387,
      "ʇ": 388,
      "ʈ": 389,
      "ʉ": 390,
      "ʊ": 391,
      "ʋ": 392,
      "ʌ": 393,
      "ʍ": 394,
      "ʎ": 395,
      "ʏ": 396,
      "ʐ": 397,
      "ʑ": 398,
      "ʒ": 399,
      "ʔ": 400,
      "ʕ": 401,
      "ʖ": 402,
      "ʗ": 403,
      "ʘ": 404,
      "ʙ": 405,
      "ʛ": 406,
      "ʝ": 407,
      "ʟ": 408,
      "ʠ": 409,
      "ʡ": 410,
      "ʢ": 411,
      "ʰ": 412,
      "ʱ": 413,
      "ʲ": 414,
      "ʳ": 415,
      "ʷ": 416,
      "ʹ": 417,
      "ʻ": 418,
      "ʼ": 419,
      "ʽ": 420,
      "ʾ": 421,
      "ʿ": 422,
      "ˀ": 423,
      "ˁ": 424,
      "ˆ": 425,
      "ˇ": 426,
      "ˈ": 427,
      "ˌ": 428,
      "ː": 429,
      "ˑ": 430,
      "˔": 431,
      "˕": 432,
      "˖": 433,
      "˘": 434,
      "˚": 435,
      "˜": 436,
      "˞": 437,
      "ˠ": 438,
      "ˢ": 439,
      "ˣ": 440,
      "ˤ": 441,
      "˥": 442,
      "˦": 443,
      "˧": 444,
      "˨": 445,
      "˩": 446,
      "̀": 447,
      "́": 448,
      "̂": 449,
      "̃": 450,
      "̄": 451,
      "̆": 452,
      "̇": 453,
      "̈": 454,
      "̊": 455,
      "̋": 456,
      "̌": 457,
      "̍": 458,
      "̏": 459,
      "̐": 460,
      "̑": 461,
      "̖": 462,
      "̗": 463,
      "̚": 464,
      "̝": 465,
      "̞": 466,
      "̟": 467,
      "̠": 468,
      "̣": 469,
      "̤": 470,
      "̥": 471,
      "̧": 472,
      "̩": 473,
      "̪": 474,
      "̬": 475,
      "̮": 476,
      "̯": 477,
      "̰": 478,
      "̱": 479,
      "̲": 480,
      "̳": 481,
      "̺": 482,
      "̽": 483,
      "͌": 484,
      "͍": 485,
      "͘": 486,
      "͜": 487,
      "͡": 488,
      "΄": 489,
      "Ά": 490,
      "Έ": 491,
      "Ή": 492,
      "Ί": 493,
      "Ό": 494,
      "Ύ": 495,
      "ΐ": 496,
      "Α": 497,
      "Β": 498,
      "Γ": 499,
      "Δ": 500,
      "Ε": 501,
      "Ζ": 502,
      "Η": 503,
      "Θ": 504,
      "Ι": 505,
      "Κ": 506,
      "Λ": 507,
      "Μ": 508,
      "Ν": 509,
      "Ξ": 510,
      "Ο": 511,
      "Π": 512,
      "Ρ": 513,
      "Σ": 514,
      "Τ": 515,
      "Υ": 516,
      "Φ": 517,
      "Χ": 518,
      "Ψ": 519,
      "Ω": 520,
      "ά": 521,
      "έ": 522,
      "ή": 523,
      "ί": 524,
      "α": 525,
      "β": 526,
      "γ": 527,
      "δ": 528,
      "ε": 529,
      "ζ": 530,
      "η": 531,
      "θ": 532,
      "ι": 533,
      "κ": 534,
      "λ": 535,
      "μ": 536,
      "ν": 537,
      "ξ": 538,
      "ο": 539,
      "π": 540,
      "ρ": 541,
      "ς": 542,
      "σ": 543,
      "τ": 544,
      "υ": 545,
      "φ": 546,
      "χ": 547,
      "ψ": 548,
      "ω": 549,
      "ϊ": 550,
      "ό": 551,
      "ύ": 552,
      "ώ": 553,
      "ϑ": 554,
      "ϕ": 555,
      "ϝ": 556,
      "ϟ": 557,
      "ϵ": 558,
      "Ђ": 559,
      "Є": 560,
      "І": 561,
      "Ї": 562,
      "Ј": 563,
      "Љ": 564,
      "Ћ": 565,
      "А": 566,
      "Б": 567,
      "В": 568,
      "Г": 569,
      "Д": 570,
      "Е": 571,
      "Ж": 572,
      "З": 573,
      "И": 574,
      "Й": 575,
      "К": 576,
      "Л": 577,
      "М": 578,
      "Н": 579,
      "О": 580,
      "П": 581,
      "Р": 582,
      "С": 583,
      "Т": 584,
      "У": 585,
      "Ф": 586,
      "Х": 587,
      "Ц": 588,
      "Ч": 589,
      "Ш": 590,
      "Щ": 591,
      "Ъ": 592,
      "Ы": 593,
      "Ь": 594,
      "Э": 595,
      "Ю": 596,
      "Я": 597,
      "а": 598,
      "б": 599,
      "в": 600,
      "г": 601,
      "д": 602,
      "е": 603,
      "ж": 604,
      "з": 605,
      "и": 606,
      "й": 607,
      "к": 608,
      "л": 609,
      "м": 610,
      "н": 611,
      "о": 612,
      "п": 613,
      "р": 614,
      "с": 615,
      "т": 616,
      "у": 617,
      "ф": 618,
      "х": 619,
      "ц": 620,
      "ч": 621,
      "ш": 622,
      "щ": 623,
      "ъ": 624,
      "ы": 625,
      "ь": 626,
      "э": 627,
      "ю": 628,
      "я": 629,
      "ё": 630,
      "ђ": 631,
      "є": 632,
      "і": 633,
      "ї": 634,
      "ј": 635,
      "љ": 636,
      "њ": 637,
      "ћ": 638,
      "ѝ": 639,
      "ў": 640,
      "Ѡ": 641,
      "ѡ": 642,
      "Ѣ": 643,
      "ѣ": 644,
      "ѥ": 645,
      "ѧ": 646,
      "Ѯ": 647,
      "ѹ": 648,
      "҆": 649,
      "ғ": 650,
      "қ": 651,
      "ү": 652,
      "ҳ": 653,
      "ҷ": 654,
      "ӣ": 655,
      "Ө": 656,
      "ө": 657,
      "ӯ": 658,
      "Ӷ": 659,
      "ӷ": 660,
      "Ա": 661,
      "Բ": 662,
      "Գ": 663,
      "Դ": 664,
      "Ե": 665,
      "Զ": 666,
      "Է": 667,
      "Ը": 668,
      "Թ": 669,
      "Ժ": 670,
      "Ի": 671,
      "Լ": 672,
      "Խ": 673,
      "Կ": 674,
      "Հ": 675,
      "Ձ": 676,
      "Ղ": 677,
      "Ճ": 678,
      "Մ": 679,
      "Յ": 680,
      "Ն": 681,
      "Շ": 682,
      "Ո": 683,
      "Պ": 684,
      "Ջ": 685,
      "Ռ": 686,
      "Ս": 687,
      "Վ": 688,
      "Տ": 689,
      "Փ": 690,
      "Ք": 691,
      "Օ": 692,
      "ա": 693,
      "բ": 694,
      "գ": 695,
      "դ": 696,
      "ե": 697,
      "զ": 698,
      "է": 699,
      "ը": 700,
      "թ": 701,
      "ժ": 702,
      "ի": 703,
      "լ": 704,
      "խ": 705,
      "ծ": 706,
      "կ": 707,
      "հ": 708,
      "ձ": 709,
      "ղ": 710,
      "ճ": 711,
      "մ": 712,
      "յ": 713,
      "ն": 714,
      "շ": 715,
      "ո": 716,
      "չ": 717,
      "պ": 718,
      "ջ": 719,
      "ռ": 720,
      "ս": 721,
      "վ": 722,
      "տ": 723,
      "ր": 724,
      "ց": 725,
      "ւ": 726,
      "փ": 727,
      "ք": 728,
      "օ": 729,
      "և": 730,
      "֤": 731,
      "֫": 732,
      "ְ": 733,
      "ֱ": 734,
      "ֲ": 735,
      "ֳ": 736,
      "ִ": 737,
      "ֵ": 738,
      "ֶ": 739,
      "ַ": 740,
      "ָ": 741,
      "ֹ": 742,
      "ֻ": 743,
      "ּ": 744,
      "ֽ": 745,
      "ֿ": 746,
      "ׁ": 747,
      "ׂ": 748,
      "א": 749,
      "ב": 750,
      "ג": 751,
      "ד": 752,
      "ה": 753,
      "ו": 754,
      "ז": 755,
      "ח": 756,
      "ט": 757,
      "י": 758,
      "ך": 759,
      "כ": 760,
      "ל": 761,
      "ם": 762,
      "מ": 763,
      "ן": 764,
      "נ": 765,
      "ס": 766,
      "ע": 767,
      "ף": 768,
      "פ": 769,
      "ץ": 770,
      "צ": 771,
      "ק": 772,
      "ר": 773,
      "ש": 774,
      "ת": 775,
      "ױ": 776,
      "׳": 777,
      "،": 778,
      "ء": 779,
      "آ": 780,
      "أ": 781,
      "ؤ": 782,
      "إ": 783,
      "ئ": 784,
      "ا": 785,
      "ب": 786,
      "ة": 787,
      "ت": 788,
      "ث": 789,
      "ج": 790,
      "ح": 791,
      "خ": 792,
      "د": 793,
      "ذ": 794,
      "ر": 795,
      "ز": 796,
      "س": 797,
      "ش": 798,
      "ص": 799,
      "ض": 800,
      "ط": 801,
      "ظ": 802,
      "ع": 803,
      "غ": 804,
      "ـ": 805,
      "ف": 806,
      "ق": 807,
      "ك": 808,
      "ل": 809,
      "م": 810,
      "ن": 811,
      "ه": 812,
      "و": 813,
      "ى": 814,
      "ي": 815,
      "ً": 816,
      "ٌ": 817,
      "ٍ": 818,
      "َ": 819,
      "ُ": 820,
      "ِ": 821,
      "ّ": 822,
      "ْ": 823,
      "ٔ": 824,
      "١": 825,
      "٧": 826,
      "ٰ": 827,
      "پ": 828,
      "چ": 829,
      "ڈ": 830,
      "ڠ": 831,
      "ک": 832,
      "ڬ": 833,
      "گ": 834,
      "ں": 835,
      "ھ": 836,
      "ہ": 837,
      "ی": 838,
      "ۍ": 839,
      "ے": 840,
      "ە": 841,
      "ܐ": 842,
      "ܒ": 843,
      "ܔ": 844,
      "ܕ": 845,
      "ܗ": 846,
      "ܘ": 847,
      "ܙ": 848,
      "ܚ": 849,
      "ܛ": 850,
      "ܝ": 851,
      "ܠ": 852,
      "ܡ": 853,
      "ܢ": 854,
      "ܣ": 855,
      "ܥ": 856,
      "ܦ": 857,
      "ܪ": 858,
      "ܬ": 859,
      "ܲ": 860,
      "ܵ": 861,
      "ܼ": 862,
      "݂": 863,
      "ँ": 864,
      "ं": 865,
      "ः": 866,
      "अ": 867,
      "आ": 868,
      "इ": 869,
      "ई": 870,
      "उ": 871,
      "ऋ": 872,
      "ए": 873,
      "ऐ": 874,
      "औ": 875,
      "क": 876,
      "ख": 877,
      "ग": 878,
      "घ": 879,
      "ङ": 880,
      "च": 881,
      "छ": 882,
      "ज": 883,
      "ञ": 884,
      "ट": 885,
      "ठ": 886,
      "ड": 887,
      "ण": 888,
      "त": 889,
      "थ": 890,
      "द": 891,
      "ध": 892,
      "न": 893,
      "प": 894,
      "फ": 895,
      "ब": 896,
      "भ": 897,
      "म": 898,
      "य": 899,
      "र": 900,
      "ल": 901,
      "व": 902,
      "श": 903,
      "ष": 904,
      "स": 905,
      "ह": 906,
      "़": 907,
      "ऽ": 908,
      "ा": 909,
      "ि": 910,
      "ी": 911,
      "ु": 912,
      "ू": 913,
      "ृ": 914,
      "ॆ": 915,
      "े": 916,
      "ै": 917,
      "ॉ": 918,
      "ॊ": 919,
      "ो": 920,
      "ौ": 921,
      "्": 922,
      "ॐ": 923,
      "।": 924,
      "॥": 925,
      "१": 926,
      "२": 927,
      "३": 928,
      "ং": 929,
      "অ": 930,
      "আ": 931,
      "ই": 932,
      "এ": 933,
      "ক": 934,
      "খ": 935,
      "গ": 936,
      "ঙ": 937,
      "চ": 938,
      "জ": 939,
      "ট": 940,
      "ড": 941,
      "ঢ": 942,
      "ণ": 943,
      "ত": 944,
      "থ": 945,
      "দ": 946,
      "ন": 947,
      "প": 948,
      "ব": 949,
      "ভ": 950,
      "ম": 951,
      "য": 952,
      "র": 953,
      "ল": 954,
      "শ": 955,
      "ষ": 956,
      "স": 957,
      "হ": 958,
      "়": 959,
      "া": 960,
      "ি": 961,
      "ী": 962,
      "ু": 963,
      "ূ": 964,
      "ে": 965,
      "ৈ": 966,
      "ো": 967,
      "্": 968,
      "ৰ": 969,
      "ਂ": 970,
      "ਅ": 971,
      "ਉ": 972,
      "ਖ": 973,
      "ਘ": 974,
      "ਜ": 975,
      "ਝ": 976,
      "ਦ": 977,
      "ਲ": 978,
      "ਵ": 979,
      "ਸ": 980,
      "ਹ": 981,
      "਼": 982,
      "ਾ": 983,
      "ਿ": 984,
      "ੁ": 985,
      "ੇ": 986,
      "ੰ": 987,
      "ੱ": 988,
      "ખ": 989,
      "ફ": 990,
      "બ": 991,
      "ર": 992,
      "લ": 993,
      "સ": 994,
      "ા": 995,
      "ો": 996,
      "ପ": 997,
      "ର": 998,
      "ୀ": 999,
      "ୁ": 1000,
      "ஃ": 1001,
      "அ": 1002,
      "ஆ": 1003,
      "இ": 1004,
      "ஈ": 1005,
      "எ": 1006,
      "ஒ": 1007,
      "க": 1008,
      "ங": 1009,
      "ச": 1010,
      "ட": 1011,
      "ண": 1012,
      "த": 1013,
      "ந": 1014,
      "ன": 1015,
      "ப": 1016,
      "ம": 1017,
      "ய": 1018,
      "ர": 1019,
      "ற": 1020,
      "ல": 1021,
      "ள": 1022,
      "ழ": 1023,
      "வ": 1024,
      "ஸ": 1025,
      "ா": 1026,
      "ி": 1027,
      "ீ": 1028,
      "ு": 1029,
      "ூ": 1030,
      "ெ": 1031,
      "ே": 1032,
      "ை": 1033,
      "ோ": 1034,
      "்": 1035,
      "ం": 1036,
      "క": 1037,
      "ఖ": 1038,
      "గ": 1039,
      "జ": 1040,
      "ట": 1041,
      "ఠ": 1042,
      "డ": 1043,
      "త": 1044,
      "థ": 1045,
      "ద": 1046,
      "న": 1047,
      "ప": 1048,
      "బ": 1049,
      "భ": 1050,
      "మ": 1051,
      "య": 1052,
      "ర": 1053,
      "ల": 1054,
      "వ": 1055,
      "ష": 1056,
      "స": 1057,
      "ా": 1058,
      "ి": 1059,
      "ీ": 1060,
      "ు": 1061,
      "ై": 1062,
      "ో": 1063,
      "్": 1064,
      "ಂ": 1065,
      "ಃ": 1066,
      "ಕ": 1067,
      "ಖ": 1068,
      "ಗ": 1069,
      "ಚ": 1070,
      "ಟ": 1071,
      "ಠ": 1072,
      "ಡ": 1073,
      "ತ": 1074,
      "ದ": 1075,
      "ನ": 1076,
      "ಪ": 1077,
      "ಬ": 1078,
      "ಭ": 1079,
      "ಮ": 1080,
      "ಯ": 1081,
      "ರ": 1082,
      "ಱ": 1083,
      "ಲ": 1084,
      "ಳ": 1085,
      "ವ": 1086,
      "ಶ": 1087,
      "ಸ": 1088,
      "ಹ": 1089,
      "ಾ": 1090,
      "ಿ": 1091,
      "ು": 1092,
      "ೇ": 1093,
      "ೋ": 1094,
      "್": 1095,
      "ೞ": 1096,
      "അ": 1097,
      "ങ": 1098,
      "ദ": 1099,
      "ന": 1100,
      "പ": 1101,
      "മ": 1102,
      "യ": 1103,
      "ര": 1104,
      "ള": 1105,
      "വ": 1106,
      "ശ": 1107,
      "സ": 1108,
      "ഹ": 1109,
      "ാ": 1110,
      "ി": 1111,
      "്": 1112,
      "අ": 1113,
      "එ": 1114,
      "ක": 1115,
      "ග": 1116,
      "ජ": 1117,
      "ත": 1118,
      "ධ": 1119,
      "න": 1120,
      "ප": 1121,
      "ම": 1122,
      "ය": 1123,
      "ර": 1124,
      "ල": 1125,
      "ව": 1126,
      "ශ": 1127,
      "හ": 1128,
      "ළ": 1129,
      "්": 1130,
      "ා": 1131,
      "ැ": 1132,
      "ි": 1133,
      "ු": 1134,
      "ේ": 1135,
      "ෝ": 1136,
      "ก": 1137,
      "ข": 1138,
      "ค": 1139,
      "ฆ": 1140,
      "ง": 1141,
      "จ": 1142,
      "ฉ": 1143,
      "ช": 1144,
      "ซ": 1145,
      "ญ": 1146,
      "ฎ": 1147,
      "ฏ": 1148,
      "ฐ": 1149,
      "ฑ": 1150,
      "ณ": 1151,
      "ด": 1152,
      "ต": 1153,
      "ถ": 1154,
      "ท": 1155,
      "ธ": 1156,
      "น": 1157,
      "บ": 1158,
      "ป": 1159,
      "ผ": 1160,
      "ฝ": 1161,
      "พ": 1162,
      "ฟ": 1163,
      "ภ": 1164,
      "ม": 1165,
      "ย": 1166,
      "ร": 1167,
      "ฤ": 1168,
      "ล": 1169,
      "ว": 1170,
      "ศ": 1171,
      "ษ": 1172,
      "ส": 1173,
      "ห": 1174,
      "ฬ": 1175,
      "อ": 1176,
      "ฮ": 1177,
      "ะ": 1178,
      "ั": 1179,
      "า": 1180,
      "ำ": 1181,
      "ิ": 1182,
      "ี": 1183,
      "ึ": 1184,
      "ื": 1185,
      "ุ": 1186,
      "ู": 1187,
      "฿": 1188,
      "เ": 1189,
      "แ": 1190,
      "โ": 1191,
      "ใ": 1192,
      "ไ": 1193,
      "็": 1194,
      "่": 1195,
      "้": 1196,
      "๊": 1197,
      "์": 1198,
      "་": 1199,
      "༌": 1200,
      "།": 1201,
      "ཀ": 1202,
      "ཁ": 1203,
      "ག": 1204,
      "ང": 1205,
      "ཆ": 1206,
      "ཇ": 1207,
      "ཐ": 1208,
      "ད": 1209,
      "ན": 1210,
      "པ": 1211,
      "བ": 1212,
      "མ": 1213,
      "ཙ": 1214,
      "ཚ": 1215,
      "ཛ": 1216,
      "འ": 1217,
      "ཡ": 1218,
      "ར": 1219,
      "ལ": 1220,
      "ས": 1221,
      "ཧ": 1222,
      "ི": 1223,
      "ུ": 1224,
      "ེ": 1225,
      "ོ": 1226,
      "ྟ": 1227,
      "ྡ": 1228,
      "ྣ": 1229,
      "ྤ": 1230,
      "ྥ": 1231,
      "ྱ": 1232,
      "ྲ": 1233,
      "က": 1234,
      "ဂ": 1235,
      "င": 1236,
      "စ": 1237,
      "ဆ": 1238,
      "န": 1239,
      "ပ": 1240,
      "ဗ": 1241,
      "ဘ": 1242,
      "မ": 1243,
      "ယ": 1244,
      "ရ": 1245,
      "လ": 1246,
      "ဝ": 1247,
      "ဟ": 1248,
      "ာ": 1249,
      "ိ": 1250,
      "ီ": 1251,
      "ု": 1252,
      "ူ": 1253,
      "ဲ": 1254,
      "း": 1255,
      "္": 1256,
      "်": 1257,
      "ျ": 1258,
      "ြ": 1259,
      "ှ": 1260,
      "Ⴀ": 1261,
      "Ⴂ": 1262,
      "Ⴃ": 1263,
      "Ⴈ": 1264,
      "Ⴌ": 1265,
      "Ⴕ": 1266,
      "Ⴟ": 1267,
      "ა": 1268,
      "ბ": 1269,
      "გ": 1270,
      "დ": 1271,
      "ე": 1272,
      "ვ": 1273,
      "ზ": 1274,
      "თ": 1275,
      "ი": 1276,
      "კ": 1277,
      "ლ": 1278,
      "მ": 1279,
      "ნ": 1280,
      "ო": 1281,
      "პ": 1282,
      "ჟ": 1283,
      "რ": 1284,
      "ს": 1285,
      "ტ": 1286,
      "უ": 1287,
      "ფ": 1288,
      "ქ": 1289,
      "ღ": 1290,
      "ყ": 1291,
      "შ": 1292,
      "ჩ": 1293,
      "ც": 1294,
      "ძ": 1295,
      "წ": 1296,
      "ჭ": 1297,
      "ხ": 1298,
      "ჯ": 1299,
      "ჰ": 1300,
      "ჱ": 1301,
      "ჲ": 1302,
      "ჳ": 1303,
      "ჴ": 1304,
      "ჵ": 1305,
      "ჶ": 1306,
      "ჷ": 1307,
      "ჸ": 1308,
      "ჹ": 1309,
      "ჺ": 1310,
      "჻": 1311,
      "ሀ": 1312,
      "ለ": 1313,
      "ሐ": 1314,
      "ሓ": 1315,
      "ሕ": 1316,
      "መ": 1317,
      "ማ": 1318,
      "ሥ": 1319,
      "ረ": 1320,
      "ር": 1321,
      "ሰ": 1322,
      "ስ": 1323,
      "ቆ": 1324,
      "ቈ": 1325,
      "በ": 1326,
      "ብ": 1327,
      "ቲ": 1328,
      "ታ": 1329,
      "ት": 1330,
      "ነ": 1331,
      "ና": 1332,
      "ን": 1333,
      "ኖ": 1334,
      "አ": 1335,
      "ኢ": 1336,
      "እ": 1337,
      "ከ": 1338,
      "ኲ": 1339,
      "ዕ": 1340,
      "ዘ": 1341,
      "ዛ": 1342,
      "የ": 1343,
      "ያ": 1344,
      "ይ": 1345,
      "ዮ": 1346,
      "ደ": 1347,
      "ድ": 1348,
      "ጅ": 1349,
      "ገ": 1350,
      "ጉ": 1351,
      "ጵ": 1352,
      "ፈ": 1353,
      "ፍ": 1354,
      "፡": 1355,
      "Ꭰ": 1356,
      "Ꭳ": 1357,
      "Ꭶ": 1358,
      "Ꭸ": 1359,
      "Ꭹ": 1360,
      "Ꮀ": 1361,
      "Ꮃ": 1362,
      "Ꮉ": 1363,
      "Ꮝ": 1364,
      "Ꮿ": 1365,
      "Ᏹ": 1366,
      "ᐊ": 1367,
      "ᑲ": 1368,
      "ᒡ": 1369,
      "ᓘ": 1370,
      "ᚢ": 1371,
      "ᚣ": 1372,
      "ᚦ": 1373,
      "ᚨ": 1374,
      "ᚩ": 1375,
      "ᚬ": 1376,
      "ᚱ": 1377,
      "ᚷ": 1378,
      "ᚹ": 1379,
      "ᚺ": 1380,
      "ᚻ": 1381,
      "ᚼ": 1382,
      "ᚾ": 1383,
      "ᛁ": 1384,
      "ᛃ": 1385,
      "ᛄ": 1386,
      "ᛇ": 1387,
      "ᛋ": 1388,
      "ᛏ": 1389,
      "ᛒ": 1390,
      "ᛗ": 1391,
      "ᛚ": 1392,
      "ᛝ": 1393,
      "ᛞ": 1394,
      "ᛟ": 1395,
      "ᛠ": 1396,
      "ក": 1397,
      "ខ": 1398,
      "គ": 1399,
      "ង": 1400,
      "ច": 1401,
      "ឆ": 1402,
      "ជ": 1403,
      "ញ": 1404,
      "ដ": 1405,
      "ឋ": 1406,
      "ណ": 1407,
      "ត": 1408,
      "ថ": 1409,
      "ទ": 1410,
      "ធ": 1411,
      "ន": 1412,
      "ប": 1413,
      "ព": 1414,
      "ភ": 1415,
      "ម": 1416,
      "យ": 1417,
      "រ": 1418,
      "ល": 1419,
      "វ": 1420,
      "ស": 1421,
      "ហ": 1422,
      "អ": 1423,
      "ឥ": 1424,
      "ឪ": 1425,
      "ឫ": 1426,
      "ឯ": 1427,
      "឵": 1428,
      "ា": 1429,
      "ិ": 1430,
      "ី": 1431,
      "ឹ": 1432,
      "ឺ": 1433,
      "ុ": 1434,
      "ូ": 1435,
      "ួ": 1436,
      "ៀ": 1437,
      "េ": 1438,
      "ែ": 1439,
      "ៃ": 1440,
      "ោ": 1441,
      "ៅ": 1442,
      "ំ": 1443,
      "ះ": 1444,
      "ៈ": 1445,
      "៉": 1446,
      "់": 1447,
      "្": 1448,
      "ᠠ": 1449,
      "ᠣ": 1450,
      "ᠨ": 1451,
      "ᠪ": 1452,
      "ᠮ": 1453,
      "ᠯ": 1454,
      "ᠰ": 1455,
      "ᠴ": 1456,
      "ᠵ": 1457,
      "ᠸ": 1458,
      "ᡝ": 1459,
      "ᡠ": 1460,
      "ᡥ": 1461,
      "ᡨ": 1462,
      "ᡳ": 1463,
      "ᡴ": 1464,
      "ᡵ": 1465,
      "ᴰ": 1466,
      "ᴷ": 1467,
      "ᴺ": 1468,
      "ᵀ": 1469,
      "ᵊ": 1470,
      "ᵑ": 1471,
      "ᵗ": 1472,
      "ᵘ": 1473,
      "ᵝ": 1474,
      "ᵻ": 1475,
      "ᵿ": 1476,
      "ᶑ": 1477,
      "ᶢ": 1478,
      "ᶦ": 1479,
      "ᶴ": 1480,
      "ᶷ": 1481,
      "᷄": 1482,
      "᷅": 1483,
      "᷆": 1484,
      "᷇": 1485,
      "᷈": 1486,
      "᷉": 1487,
      "᷽": 1488,
      "Ḍ": 1489,
      "ḍ": 1490,
      "Ḏ": 1491,
      "ḏ": 1492,
      "ḑ": 1493,
      "ḕ": 1494,
      "ḗ": 1495,
      "Ḣ": 1496,
      "Ḥ": 1497,
      "ḥ": 1498,
      "Ḩ": 1499,
      "ḩ": 1500,
      "Ḫ": 1501,
      "ḫ": 1502,
      "ḭ": 1503,
      "ḱ": 1504,
      "Ḳ": 1505,
      "ḳ": 1506,
      "ḵ": 1507,
      "ḷ": 1508,
      "ḹ": 1509,
      "ḻ": 1510,
      "ḿ": 1511,
      "ṁ": 1512,
      "ṃ": 1513,
      "ṅ": 1514,
      "ṇ": 1515,
      "ṉ": 1516,
      "ṓ": 1517,
      "ṙ": 1518,
      "Ṛ": 1519,
      "ṛ": 1520,
      "Ṝ": 1521,
      "ṝ": 1522,
      "ṟ": 1523,
      "Ṣ": 1524,
      "ṣ": 1525,
      "Ṧ": 1526,
      "Ṫ": 1527,
      "Ṭ": 1528,
      "ṭ": 1529,
      "Ṯ": 1530,
      "ṯ": 1531,
      "ṳ": 1532,
      "ṵ": 1533,
      "Ṽ": 1534,
      "ṽ": 1535,
      "ẃ": 1536,
      "Ẓ": 1537,
      "ẓ": 1538,
      "ẖ": 1539,
      "ạ": 1540,
      "ả": 1541,
      "Ấ": 1542,
      "ấ": 1543,
      "ầ": 1544,
      "Ẩ": 1545,
      "ẩ": 1546,
      "ẫ": 1547,
      "ậ": 1548,
      "ắ": 1549,
      "ằ": 1550,
      "ẵ": 1551,
      "ặ": 1552,
      "ẹ": 1553,
      "ẻ": 1554,
      "ẽ": 1555,
      "ế": 1556,
      "ề": 1557,
      "ể": 1558,
      "ễ": 1559,
      "ệ": 1560,
      "ỉ": 1561,
      "ị": 1562,
      "Ọ": 1563,
      "ọ": 1564,
      "ỏ": 1565,
      "Ố": 1566,
      "ố": 1567,
      "ồ": 1568,
      "ổ": 1569,
      "ỗ": 1570,
      "ộ": 1571,
      "ớ": 1572,
      "ờ": 1573,
      "ở": 1574,
      "ợ": 1575,
      "Ụ": 1576,
      "ụ": 1577,
      "ủ": 1578,
      "Ứ": 1579,
      "ứ": 1580,
      "ừ": 1581,
      "ử": 1582,
      "ữ": 1583,
      "ự": 1584,
      "ỳ": 1585,
      "ỵ": 1586,
      "ỹ": 1587,
      "ἀ": 1588,
      "ἁ": 1589,
      "ἂ": 1590,
      "ἃ": 1591,
      "ἄ": 1592,
      "ἅ": 1593,
      "Ἀ": 1594,
      "Ἁ": 1595,
      "Ἄ": 1596,
      "Ἅ": 1597,
      "ἐ": 1598,
      "ἑ": 1599,
      "ἒ": 1600,
      "ἔ": 1601,
      "ἕ": 1602,
      "Ἐ": 1603,
      "Ἑ": 1604,
      "Ἔ": 1605,
      "Ἕ": 1606,
      "ἠ": 1607,
      "ἡ": 1608,
      "ἢ": 1609,
      "ἤ": 1610,
      "ἥ": 1611,
      "ἦ": 1612,
      "ἧ": 1613,
      "Ἠ": 1614,
      "Ἡ": 1615,
      "ἰ": 1616,
      "ἱ": 1617,
      "ἲ": 1618,
      "ἳ": 1619,
      "ἴ": 1620,
      "ἵ": 1621,
      "ἶ": 1622,
      "ἷ": 1623,
      "Ἰ": 1624,
      "Ἱ": 1625,
      "Ἶ": 1626,
      "ὀ": 1627,
      "ὁ": 1628,
      "ὂ": 1629,
      "ὃ": 1630,
      "ὄ": 1631,
      "ὅ": 1632,
      "Ὁ": 1633,
      "Ὄ": 1634,
      "ὐ": 1635,
      "ὑ": 1636,
      "ὔ": 1637,
      "ὕ": 1638,
      "ὖ": 1639,
      "ὗ": 1640,
      "Ὕ": 1641,
      "ὡ": 1642,
      "ὣ": 1643,
      "ὤ": 1644,
      "ὥ": 1645,
      "ὦ": 1646,
      "Ὠ": 1647,
      "Ὡ": 1648,
      "Ὦ": 1649,
      "ὰ": 1650,
      "ὲ": 1651,
      "ὴ": 1652,
      "ὶ": 1653,
      "ὸ": 1654,
      "ὺ": 1655,
      "ὼ": 1656,
      "ᾓ": 1657,
      "ᾰ": 1658,
      "ᾳ": 1659,
      "ᾶ": 1660,
      "ᾷ": 1661,
      "᾿": 1662,
      "ῆ": 1663,
      "ῇ": 1664,
      "Ὲ": 1665,
      "ῐ": 1666,
      "ῑ": 1667,
      "ῖ": 1668,
      "Ὶ": 1669,
      "ῠ": 1670,
      "ῥ": 1671,
      "ῦ": 1672,
      "Ῥ": 1673,
      "ῳ": 1674,
      "ῶ": 1675,
      "ῷ": 1676,
      "​": 1677,
      "‌": 1678,
      "‍": 1679,
      "‐": 1680,
      "‑": 1681,
      "‒": 1682,
      "–": 1683,
      "—": 1684,
      "―": 1685,
      "‖": 1686,
      "‘": 1687,
      "’": 1688,
      "‚": 1689,
      "‛": 1690,
      "“": 1691,
      "”": 1692,
      "„": 1693,
      "‟": 1694,
      "†": 1695,
      "‡": 1696,
      "•": 1697,
      "…": 1698,
      "‰": 1699,
      "′": 1700,
      "″": 1701,
      "※": 1702,
      "‼": 1703,
      "‿": 1704,
      "⁄": 1705,
      "⁊": 1706,
      "⁠": 1707,
      "⁡": 1708,
      "⁰": 1709,
      "⁺": 1710,
      "ⁿ": 1711,
      "₁": 1712,
      "₂": 1713,
      "₃": 1714,
      "₄": 1715,
      "₡": 1716,
      "₣": 1717,
      "₤": 1718,
      "₦": 1719,
      "₧": 1720,
      "₨": 1721,
      "₩": 1722,
      "₫": 1723,
      "€": 1724,
      "₱": 1725,
      "₴": 1726,
      "₹": 1727,
      "ℂ": 1728,
      "℃": 1729,
      "ℓ": 1730,
      "ℕ": 1731,
      "№": 1732,
      "ℛ": 1733,
      "ℝ": 1734,
      "℞": 1735,
      "™": 1736,
      "ℤ": 1737,
      "℥": 1738,
      "ℵ": 1739,
      "⅓": 1740,
      "⅔": 1741,
      "⅙": 1742,
      "⅛": 1743,
      "⅜": 1744,
      "⅝": 1745,
      "⅞": 1746,
      "Ⅱ": 1747,
      "←": 1748,
      "↑": 1749,
      "→": 1750,
      "↓": 1751,
      "↔": 1752,
      "↗": 1753,
      "↘": 1754,
      "↦": 1755,
      "↪": 1756,
      "↵": 1757,
      "⇄": 1758,
      "⇌": 1759,
      "⇒": 1760,
      "⇪": 1761,
      "∀": 1762,
      "∂": 1763,
      "∅": 1764,
      "∆": 1765,
      "∇": 1766,
      "∈": 1767,
      "∉": 1768,
      "∊": 1769,
      "∑": 1770,
      "−": 1771,
      "∕": 1772,
      "∖": 1773,
      "∗": 1774,
      "∘": 1775,
      "√": 1776,
      "∝": 1777,
      "∞": 1778,
      "∤": 1779,
      "∩": 1780,
      "∪": 1781,
      "∫": 1782,
      "∴": 1783,
      "∼": 1784,
      "≈": 1785,
      "≠": 1786,
      "≡": 1787,
      "≢": 1788,
      "≤": 1789,
      "≥": 1790,
      "≪": 1791,
      "≫": 1792,
      "≲": 1793,
      "⊂": 1794,
      "⊕": 1795,
      "⊗": 1796,
      "⊙": 1797,
      "⊞": 1798,
      "⊢": 1799,
      "⊣": 1800,
      "⊥": 1801,
      "⋅": 1802,
      "⋆": 1803,
      "⋯": 1804,
      "⌊": 1805,
      "⌋": 1806,
      "⌘": 1807,
      "①": 1808,
      "②": 1809,
      "③": 1810,
      "④": 1811,
      "⑤": 1812,
      "⑥": 1813,
      "⑦": 1814,
      "⑧": 1815,
      "─": 1816,
      "█": 1817,
      "▢": 1818,
      "▲": 1819,
      "▼": 1820,
      "○": 1821,
      "●": 1822,
      "◦": 1823,
      "☄": 1824,
      "★": 1825,
      "☆": 1826,
      "☉": 1827,
      "☧": 1828,
      "☫": 1829,
      "☭": 1830,
      "☽": 1831,
      "☾": 1832,
      "♀": 1833,
      "♂": 1834,
      "♄": 1835,
      "♅": 1836,
      "♆": 1837,
      "♇": 1838,
      "♈": 1839,
      "♉": 1840,
      "♠": 1841,
      "♣": 1842,
      "♥": 1843,
      "♦": 1844,
      "♩": 1845,
      "♪": 1846,
      "♭": 1847,
      "♮": 1848,
      "♯": 1849,
      "⚳": 1850,
      "⚴": 1851,
      "⚵": 1852,
      "⛢": 1853,
      "✡": 1854,
      "✱": 1855,
      "❄": 1856,
      "❅": 1857,
      "❆": 1858,
      "❤": 1859,
      "⟦": 1860,
      "⟧": 1861,
      "⟨": 1862,
      "⟩": 1863,
      "⥇": 1864,
      "⩽": 1865,
      "⫶": 1866,
      "ⱱ": 1867,
      "ⲁ": 1868,
      "ⲛ": 1869,
      "ⲥ": 1870,
      "ⲧ": 1871,
      "ⲩ": 1872,
      "Ⲫ": 1873,
      "ⲱ": 1874,
      "ⴰ": 1875,
      "ⴳ": 1876,
      "ⴷ": 1877,
      "ⴻ": 1878,
      "ⴼ": 1879,
      "ⴽ": 1880,
      "ⵃ": 1881,
      "ⵇ": 1882,
      "ⵉ": 1883,
      "ⵍ": 1884,
      "ⵎ": 1885,
      "ⵏ": 1886,
      "ⵓ": 1887,
      "ⵔ": 1888,
      "ⵕ": 1889,
      "ⵖ": 1890,
      "ⵙ": 1891,
      "ⵛ": 1892,
      "ⵜ": 1893,
      "ⵡ": 1894,
      "ⵢ": 1895,
      "ⵣ": 1896,
      "⸨": 1897,
      "⸩": 1898,
      "、": 1899,
      "。": 1900,
      "々": 1901,
      "〈": 1902,
      "〉": 1903,
      "《": 1904,
      "》": 1905,
      "「": 1906,
      "」": 1907,
      "『": 1908,
      "』": 1909,
      "【": 1910,
      "】": 1911,
      "〒": 1912,
      "〜": 1913,
      "あ": 1914,
      "ぃ": 1915,
      "い": 1916,
      "ぅ": 1917,
      "う": 1918,
      "ぇ": 1919,
      "え": 1920,
      "ぉ": 1921,
      "お": 1922,
      "か": 1923,
      "が": 1924,
      "き": 1925,
      "ぎ": 1926,
      "く": 1927,
      "ぐ": 1928,
      "け": 1929,
      "げ": 1930,
      "こ": 1931,
      "ご": 1932,
      "さ": 1933,
      "ざ": 1934,
      "し": 1935,
      "じ": 1936,
      "す": 1937,
      "ず": 1938,
      "せ": 1939,
      "ぜ": 1940,
      "そ": 1941,
      "ぞ": 1942,
      "た": 1943,
      "だ": 1944,
      "ち": 1945,
      "っ": 1946,
      "つ": 1947,
      "づ": 1948,
      "て": 1949,
      "で": 1950,
      "と": 1951,
      "ど": 1952,
      "な": 1953,
      "に": 1954,
      "ぬ": 1955,
      "ね": 1956,
      "の": 1957,
      "は": 1958,
      "ば": 1959,
      "ぱ": 1960,
      "ひ": 1961,
      "び": 1962,
      "ぴ": 1963,
      "ふ": 1964,
      "ぶ": 1965,
      "ぷ": 1966,
      "へ": 1967,
      "べ": 1968,
      "ぺ": 1969,
      "ほ": 1970,
      "ぼ": 1971,
      "ぽ": 1972,
      "ま": 1973,
      "み": 1974,
      "む": 1975,
      "め": 1976,
      "も": 1977,
      "ゃ": 1978,
      "や": 1979,
      "ゅ": 1980,
      "ゆ": 1981,
      "ょ": 1982,
      "よ": 1983,
      "ら": 1984,
      "り": 1985,
      "る": 1986,
      "れ": 1987,
      "ろ": 1988,
      "わ": 1989,
      "ゑ": 1990,
      "を": 1991,
      "ん": 1992,
      "ァ": 1993,
      "ア": 1994,
      "ィ": 1995,
      "イ": 1996,
      "ゥ": 1997,
      "ウ": 1998,
      "ェ": 1999,
      "エ": 2000,
      "ォ": 2001,
      "オ": 2002,
      "カ": 2003,
      "ガ": 2004,
      "キ": 2005,
      "ギ": 2006,
      "ク": 2007,
      "グ": 2008,
      "ケ": 2009,
      "ゲ": 2010,
      "コ": 2011,
      "ゴ": 2012,
      "サ": 2013,
      "ザ": 2014,
      "シ": 2015,
      "ジ": 2016,
      "ス": 2017,
      "ズ": 2018,
      "セ": 2019,
      "ゼ": 2020,
      "ソ": 2021,
      "ゾ": 2022,
      "タ": 2023,
      "ダ": 2024,
      "チ": 2025,
      "ヂ": 2026,
      "ッ": 2027,
      "ツ": 2028,
      "ヅ": 2029,
      "テ": 2030,
      "デ": 2031,
      "ト": 2032,
      "ド": 2033,
      "ナ": 2034,
      "ニ": 2035,
      "ヌ": 2036,
      "ネ": 2037,
      "ノ": 2038,
      "ハ": 2039,
      "バ": 2040,
      "パ": 2041,
      "ヒ": 2042,
      "ビ": 2043,
      "ピ": 2044,
      "フ": 2045,
      "ブ": 2046,
      "プ": 2047,
      "ヘ": 2048,
      "ベ": 2049,
      "ペ": 2050,
      "ホ": 2051,
      "ボ": 2052,
      "ポ": 2053,
      "マ": 2054,
      "ミ": 2055,
      "ム": 2056,
      "メ": 2057,
      "モ": 2058,
      "ャ": 2059,
      "ヤ": 2060,
      "ュ": 2061,
      "ユ": 2062,
      "ョ": 2063,
      "ヨ": 2064,
      "ラ": 2065,
      "リ": 2066,
      "ル": 2067,
      "レ": 2068,
      "ロ": 2069,
      "ワ": 2070,
      "ヲ": 2071,
      "ン": 2072,
      "ヴ": 2073,
      "ヶ": 2074,
      "・": 2075,
      "ー": 2076,
      "一": 2077,
      "丁": 2078,
      "七": 2079,
      "万": 2080,
      "丈": 2081,
      "三": 2082,
      "上": 2083,
      "下": 2084,
      "不": 2085,
      "与": 2086,
      "丑": 2087,
      "且": 2088,
      "世": 2089,
      "丘": 2090,
      "丙": 2091,
      "东": 2092,
      "丝": 2093,
      "丞": 2094,
      "両": 2095,
      "丨": 2096,
      "个": 2097,
      "中": 2098,
      "丶": 2099,
      "丸": 2100,
      "丹": 2101,
      "为": 2102,
      "主": 2103,
      "丽": 2104,
      "丿": 2105,
      "乃": 2106,
      "久": 2107,
      "么": 2108,
      "义": 2109,
      "之": 2110,
      "乌": 2111,
      "乎": 2112,
      "乐": 2113,
      "乘": 2114,
      "乙": 2115,
      "乚": 2116,
      "乛": 2117,
      "九": 2118,
      "也": 2119,
      "习": 2120,
      "书": 2121,
      "乩": 2122,
      "买": 2123,
      "乱": 2124,
      "乳": 2125,
      "乾": 2126,
      "亀": 2127,
      "亅": 2128,
      "了": 2129,
      "予": 2130,
      "争": 2131,
      "事": 2132,
      "二": 2133,
      "云": 2134,
      "五": 2135,
      "井": 2136,
      "亚": 2137,
      "些": 2138,
      "亜": 2139,
      "亞": 2140,
      "亡": 2141,
      "交": 2142,
      "亦": 2143,
      "亨": 2144,
      "京": 2145,
      "亮": 2146,
      "亰": 2147,
      "人": 2148,
      "什": 2149,
      "仁": 2150,
      "仇": 2151,
      "今": 2152,
      "介": 2153,
      "仔": 2154,
      "仕": 2155,
      "他": 2156,
      "付": 2157,
      "仙": 2158,
      "代": 2159,
      "令": 2160,
      "以": 2161,
      "仪": 2162,
      "们": 2163,
      "仮": 2164,
      "仰": 2165,
      "仲": 2166,
      "件": 2167,
      "任": 2168,
      "份": 2169,
      "伊": 2170,
      "伏": 2171,
      "伐": 2172,
      "休": 2173,
      "会": 2174,
      "伝": 2175,
      "伟": 2176,
      "传": 2177,
      "伪": 2178,
      "伯": 2179,
      "伴": 2180,
      "伸": 2181,
      "似": 2182,
      "佃": 2183,
      "但": 2184,
      "位": 2185,
      "住": 2186,
      "佐": 2187,
      "佑": 2188,
      "体": 2189,
      "何": 2190,
      "余": 2191,
      "佛": 2192,
      "作": 2193,
      "你": 2194,
      "佳": 2195,
      "併": 2196,
      "使": 2197,
      "來": 2198,
      "例": 2199,
      "侍": 2200,
      "侗": 2201,
      "供": 2202,
      "依": 2203,
      "侠": 2204,
      "侨": 2205,
      "侬": 2206,
      "侯": 2207,
      "係": 2208,
      "促": 2209,
      "俄": 2210,
      "俊": 2211,
      "保": 2212,
      "信": 2213,
      "俭": 2214,
      "修": 2215,
      "俱": 2216,
      "俳": 2217,
      "倉": 2218,
      "個": 2219,
      "們": 2220,
      "候": 2221,
      "借": 2222,
      "倪": 2223,
      "倫": 2224,
      "倭": 2225,
      "偃": 2226,
      "假": 2227,
      "偏": 2228,
      "健": 2229,
      "側": 2230,
      "偵": 2231,
      "偽": 2232,
      "傀": 2233,
      "傅": 2234,
      "傑": 2235,
      "傘": 2236,
      "備": 2237,
      "催": 2238,
      "傭": 2239,
      "傳": 2240,
      "傷": 2241,
      "像": 2242,
      "僑": 2243,
      "僕": 2244,
      "僧": 2245,
      "儀": 2246,
      "億": 2247,
      "儒": 2248,
      "儚": 2249,
      "儡": 2250,
      "優": 2251,
      "儿": 2252,
      "允": 2253,
      "元": 2254,
      "充": 2255,
      "兆": 2256,
      "先": 2257,
      "光": 2258,
      "克": 2259,
      "免": 2260,
      "兒": 2261,
      "兔": 2262,
      "兜": 2263,
      "入": 2264,
      "內": 2265,
      "全": 2266,
      "兩": 2267,
      "八": 2268,
      "公": 2269,
      "六": 2270,
      "兰": 2271,
      "共": 2272,
      "关": 2273,
      "兵": 2274,
      "其": 2275,
      "具": 2276,
      "典": 2277,
      "养": 2278,
      "冀": 2279,
      "内": 2280,
      "円": 2281,
      "冉": 2282,
      "册": 2283,
      "再": 2284,
      "冒": 2285,
      "写": 2286,
      "军": 2287,
      "冠": 2288,
      "冥": 2289,
      "冫": 2290,
      "冬": 2291,
      "冯": 2292,
      "决": 2293,
      "冴": 2294,
      "冶": 2295,
      "冷": 2296,
      "净": 2297,
      "准": 2298,
      "凌": 2299,
      "凤": 2300,
      "処": 2301,
      "凪": 2302,
      "凯": 2303,
      "凰": 2304,
      "凱": 2305,
      "凶": 2306,
      "凹": 2307,
      "出": 2308,
      "刀": 2309,
      "刃": 2310,
      "分": 2311,
      "切": 2312,
      "刊": 2313,
      "划": 2314,
      "列": 2315,
      "刘": 2316,
      "初": 2317,
      "判": 2318,
      "別": 2319,
      "利": 2320,
      "别": 2321,
      "到": 2322,
      "制": 2323,
      "刷": 2324,
      "券": 2325,
      "刹": 2326,
      "刺": 2327,
      "刻": 2328,
      "則": 2329,
      "前": 2330,
      "剑": 2331,
      "剛": 2332,
      "剣": 2333,
      "剧": 2334,
      "剩": 2335,
      "副": 2336,
      "割": 2337,
      "創": 2338,
      "劃": 2339,
      "劇": 2340,
      "劉": 2341,
      "劍": 2342,
      "力": 2343,
      "办": 2344,
      "功": 2345,
      "加": 2346,
      "劣": 2347,
      "动": 2348,
      "助": 2349,
      "劳": 2350,
      "勃": 2351,
      "勅": 2352,
      "勇": 2353,
      "勒": 2354,
      "動": 2355,
      "勘": 2356,
      "務": 2357,
      "勝": 2358,
      "勞": 2359,
      "勢": 2360,
      "勳": 2361,
      "勾": 2362,
      "包": 2363,
      "化": 2364,
      "北": 2365,
      "匠": 2366,
      "匹": 2367,
      "区": 2368,
      "医": 2369,
      "區": 2370,
      "十": 2371,
      "千": 2372,
      "升": 2373,
      "午": 2374,
      "半": 2375,
      "华": 2376,
      "协": 2377,
      "卐": 2378,
      "卒": 2379,
      "卓": 2380,
      "協": 2381,
      "单": 2382,
      "卖": 2383,
      "南": 2384,
      "博": 2385,
      "卜": 2386,
      "占": 2387,
      "卡": 2388,
      "卢": 2389,
      "卦": 2390,
      "卫": 2391,
      "印": 2392,
      "危": 2393,
      "即": 2394,
      "却": 2395,
      "卸": 2396,
      "卿": 2397,
      "厂": 2398,
      "厄": 2399,
      "历": 2400,
      "厘": 2401,
      "厚": 2402,
      "原": 2403,
      "厥": 2404,
      "厦": 2405,
      "厩": 2406,
      "去": 2407,
      "县": 2408,
      "参": 2409,
      "參": 2410,
      "叉": 2411,
      "及": 2412,
      "友": 2413,
      "双": 2414,
      "反": 2415,
      "収": 2416,
      "发": 2417,
      "叔": 2418,
      "取": 2419,
      "受": 2420,
      "变": 2421,
      "叛": 2422,
      "叠": 2423,
      "叡": 2424,
      "叢": 2425,
      "口": 2426,
      "古": 2427,
      "句": 2428,
      "只": 2429,
      "叫": 2430,
      "召": 2431,
      "可": 2432,
      "台": 2433,
      "史": 2434,
      "右": 2435,
      "叶": 2436,
      "号": 2437,
      "司": 2438,
      "合": 2439,
      "吉": 2440,
      "同": 2441,
      "名": 2442,
      "后": 2443,
      "向": 2444,
      "吕": 2445,
      "君": 2446,
      "吞": 2447,
      "吟": 2448,
      "吧": 2449,
      "启": 2450,
      "吳": 2451,
      "吴": 2452,
      "吸": 2453,
      "吹": 2454,
      "吾": 2455,
      "呂": 2456,
      "呉": 2457,
      "告": 2458,
      "周": 2459,
      "呪": 2460,
      "味": 2461,
      "呼": 2462,
      "命": 2463,
      "咆": 2464,
      "和": 2465,
      "咖": 2466,
      "咙": 2467,
      "咫": 2468,
      "咲": 2469,
      "咸": 2470,
      "哀": 2471,
      "品": 2472,
      "哈": 2473,
      "哉": 2474,
      "响": 2475,
      "員": 2476,
      "哥": 2477,
      "哮": 2478,
      "哲": 2479,
      "唄": 2480,
      "唐": 2481,
      "唯": 2482,
      "唱": 2483,
      "商": 2484,
      "問": 2485,
      "啓": 2486,
      "啟": 2487,
      "啡": 2488,
      "善": 2489,
      "喇": 2490,
      "喋": 2491,
      "喚": 2492,
      "喜": 2493,
      "喝": 2494,
      "喬": 2495,
      "嘉": 2496,
      "嘘": 2497,
      "噛": 2498,
      "器": 2499,
      "嚣": 2500,
      "嚴": 2501,
      "囁": 2502,
      "囂": 2503,
      "囃": 2504,
      "囚": 2505,
      "四": 2506,
      "回": 2507,
      "因": 2508,
      "团": 2509,
      "団": 2510,
      "図": 2511,
      "国": 2512,
      "图": 2513,
      "圈": 2514,
      "國": 2515,
      "圍": 2516,
      "圏": 2517,
      "園": 2518,
      "圓": 2519,
      "圖": 2520,
      "土": 2521,
      "圣": 2522,
      "圧": 2523,
      "在": 2524,
      "地": 2525,
      "圻": 2526,
      "坂": 2527,
      "均": 2528,
      "坊": 2529,
      "坑": 2530,
      "块": 2531,
      "坚": 2532,
      "坝": 2533,
      "坡": 2534,
      "坤": 2535,
      "坪": 2536,
      "型": 2537,
      "垣": 2538,
      "城": 2539,
      "埔": 2540,
      "域": 2541,
      "執": 2542,
      "培": 2543,
      "基": 2544,
      "堀": 2545,
      "堂": 2546,
      "堅": 2547,
      "堆": 2548,
      "堡": 2549,
      "堤": 2550,
      "堯": 2551,
      "報": 2552,
      "場": 2553,
      "塊": 2554,
      "塔": 2555,
      "塘": 2556,
      "塚": 2557,
      "塞": 2558,
      "塩": 2559,
      "填": 2560,
      "塵": 2561,
      "境": 2562,
      "墓": 2563,
      "墙": 2564,
      "增": 2565,
      "壁": 2566,
      "壌": 2567,
      "壓": 2568,
      "壟": 2569,
      "壤": 2570,
      "士": 2571,
      "壬": 2572,
      "壮": 2573,
      "壯": 2574,
      "声": 2575,
      "壱": 2576,
      "売": 2577,
      "壳": 2578,
      "壷": 2579,
      "壽": 2580,
      "处": 2581,
      "备": 2582,
      "変": 2583,
      "复": 2584,
      "夏": 2585,
      "夕": 2586,
      "外": 2587,
      "多": 2588,
      "夜": 2589,
      "够": 2590,
      "夢": 2591,
      "夤": 2592,
      "大": 2593,
      "天": 2594,
      "太": 2595,
      "夫": 2596,
      "央": 2597,
      "失": 2598,
      "头": 2599,
      "夷": 2600,
      "奇": 2601,
      "奈": 2602,
      "奉": 2603,
      "奎": 2604,
      "奏": 2605,
      "奐": 2606,
      "契": 2607,
      "奔": 2608,
      "奥": 2609,
      "奧": 2610,
      "奪": 2611,
      "女": 2612,
      "奴": 2613,
      "好": 2614,
      "如": 2615,
      "妃": 2616,
      "妇": 2617,
      "妍": 2618,
      "妖": 2619,
      "妙": 2620,
      "妮": 2621,
      "妹": 2622,
      "妻": 2623,
      "姉": 2624,
      "姊": 2625,
      "始": 2626,
      "姑": 2627,
      "委": 2628,
      "姚": 2629,
      "姥": 2630,
      "姦": 2631,
      "姫": 2632,
      "姬": 2633,
      "姿": 2634,
      "威": 2635,
      "娘": 2636,
      "娜": 2637,
      "婁": 2638,
      "婆": 2639,
      "婚": 2640,
      "婷": 2641,
      "嫁": 2642,
      "嬢": 2643,
      "嬴": 2644,
      "子": 2645,
      "孔": 2646,
      "字": 2647,
      "存": 2648,
      "孙": 2649,
      "孛": 2650,
      "孝": 2651,
      "孟": 2652,
      "季": 2653,
      "孤": 2654,
      "学": 2655,
      "孩": 2656,
      "孫": 2657,
      "孵": 2658,
      "學": 2659,
      "宁": 2660,
      "宅": 2661,
      "宇": 2662,
      "守": 2663,
      "安": 2664,
      "宋": 2665,
      "完": 2666,
      "宏": 2667,
      "宗": 2668,
      "官": 2669,
      "宙": 2670,
      "定": 2671,
      "宜": 2672,
      "宝": 2673,
      "实": 2674,
      "実": 2675,
      "客": 2676,
      "宣": 2677,
      "室": 2678,
      "宫": 2679,
      "宮": 2680,
      "宴": 2681,
      "宵": 2682,
      "家": 2683,
      "宸": 2684,
      "容": 2685,
      "宿": 2686,
      "寂": 2687,
      "寄": 2688,
      "密": 2689,
      "寇": 2690,
      "富": 2691,
      "寔": 2692,
      "寗": 2693,
      "寛": 2694,
      "寝": 2695,
      "寞": 2696,
      "察": 2697,
      "寧": 2698,
      "寨": 2699,
      "審": 2700,
      "寬": 2701,
      "寵": 2702,
      "寶": 2703,
      "寸": 2704,
      "对": 2705,
      "寺": 2706,
      "寻": 2707,
      "対": 2708,
      "寿": 2709,
      "封": 2710,
      "射": 2711,
      "将": 2712,
      "將": 2713,
      "尉": 2714,
      "尊": 2715,
      "尋": 2716,
      "對": 2717,
      "導": 2718,
      "小": 2719,
      "少": 2720,
      "尔": 2721,
      "尚": 2722,
      "尧": 2723,
      "就": 2724,
      "尸": 2725,
      "尹": 2726,
      "尺": 2727,
      "尼": 2728,
      "尽": 2729,
      "尾": 2730,
      "局": 2731,
      "居": 2732,
      "届": 2733,
      "屋": 2734,
      "屍": 2735,
      "屑": 2736,
      "展": 2737,
      "屠": 2738,
      "層": 2739,
      "屬": 2740,
      "屯": 2741,
      "山": 2742,
      "屿": 2743,
      "岐": 2744,
      "岑": 2745,
      "岚": 2746,
      "岛": 2747,
      "岡": 2748,
      "岩": 2749,
      "岬": 2750,
      "岭": 2751,
      "岳": 2752,
      "岸": 2753,
      "峰": 2754,
      "島": 2755,
      "崇": 2756,
      "崎": 2757,
      "崔": 2758,
      "崖": 2759,
      "嵐": 2760,
      "嶋": 2761,
      "嶺": 2762,
      "嶼": 2763,
      "巂": 2764,
      "巖": 2765,
      "川": 2766,
      "州": 2767,
      "巡": 2768,
      "工": 2769,
      "左": 2770,
      "巨": 2771,
      "巫": 2772,
      "差": 2773,
      "己": 2774,
      "巳": 2775,
      "巴": 2776,
      "巻": 2777,
      "币": 2778,
      "市": 2779,
      "布": 2780,
      "帆": 2781,
      "师": 2782,
      "希": 2783,
      "帕": 2784,
      "帖": 2785,
      "帝": 2786,
      "帥": 2787,
      "带": 2788,
      "師": 2789,
      "帮": 2790,
      "帰": 2791,
      "帶": 2792,
      "常": 2793,
      "幕": 2794,
      "幡": 2795,
      "幣": 2796,
      "干": 2797,
      "平": 2798,
      "年": 2799,
      "幸": 2800,
      "幻": 2801,
      "幽": 2802,
      "广": 2803,
      "庁": 2804,
      "広": 2805,
      "庄": 2806,
      "庆": 2807,
      "庇": 2808,
      "序": 2809,
      "库": 2810,
      "底": 2811,
      "庖": 2812,
      "店": 2813,
      "庙": 2814,
      "庚": 2815,
      "府": 2816,
      "度": 2817,
      "座": 2818,
      "庫": 2819,
      "庭": 2820,
      "庵": 2821,
      "康": 2822,
      "廉": 2823,
      "廊": 2824,
      "廖": 2825,
      "廟": 2826,
      "廣": 2827,
      "廬": 2828,
      "延": 2829,
      "廷": 2830,
      "建": 2831,
      "廻": 2832,
      "廿": 2833,
      "开": 2834,
      "弁": 2835,
      "式": 2836,
      "弐": 2837,
      "弓": 2838,
      "弔": 2839,
      "引": 2840,
      "弘": 2841,
      "弟": 2842,
      "张": 2843,
      "弥": 2844,
      "弦": 2845,
      "弧": 2846,
      "弱": 2847,
      "張": 2848,
      "強": 2849,
      "弹": 2850,
      "强": 2851,
      "弾": 2852,
      "彌": 2853,
      "当": 2854,
      "录": 2855,
      "彖": 2856,
      "彙": 2857,
      "形": 2858,
      "彦": 2859,
      "彩": 2860,
      "彪": 2861,
      "彬": 2862,
      "彭": 2863,
      "影": 2864,
      "役": 2865,
      "彼": 2866,
      "征": 2867,
      "径": 2868,
      "待": 2869,
      "律": 2870,
      "後": 2871,
      "徐": 2872,
      "徒": 2873,
      "得": 2874,
      "從": 2875,
      "御": 2876,
      "復": 2877,
      "微": 2878,
      "徳": 2879,
      "德": 2880,
      "徹": 2881,
      "徽": 2882,
      "心": 2883,
      "必": 2884,
      "忍": 2885,
      "志": 2886,
      "忘": 2887,
      "応": 2888,
      "忠": 2889,
      "快": 2890,
      "念": 2891,
      "怀": 2892,
      "怎": 2893,
      "怒": 2894,
      "怖": 2895,
      "思": 2896,
      "怡": 2897,
      "急": 2898,
      "性": 2899,
      "怨": 2900,
      "怪": 2901,
      "总": 2902,
      "恆": 2903,
      "恋": 2904,
      "恐": 2905,
      "恒": 2906,
      "恢": 2907,
      "恥": 2908,
      "恩": 2909,
      "恭": 2910,
      "息": 2911,
      "恵": 2912,
      "恼": 2913,
      "悔": 2914,
      "悟": 2915,
      "悠": 2916,
      "悦": 2917,
      "悪": 2918,
      "悫": 2919,
      "悲": 2920,
      "悼": 2921,
      "情": 2922,
      "惑": 2923,
      "惟": 2924,
      "惠": 2925,
      "惡": 2926,
      "想": 2927,
      "愁": 2928,
      "愍": 2929,
      "意": 2930,
      "愚": 2931,
      "愛": 2932,
      "感": 2933,
      "愽": 2934,
      "慈": 2935,
      "態": 2936,
      "慎": 2937,
      "慧": 2938,
      "慰": 2939,
      "慶": 2940,
      "憂": 2941,
      "憎": 2942,
      "憑": 2943,
      "憲": 2944,
      "憶": 2945,
      "應": 2946,
      "懍": 2947,
      "懷": 2948,
      "戈": 2949,
      "戊": 2950,
      "戎": 2951,
      "成": 2952,
      "我": 2953,
      "战": 2954,
      "戦": 2955,
      "戯": 2956,
      "戰": 2957,
      "戴": 2958,
      "户": 2959,
      "戸": 2960,
      "房": 2961,
      "所": 2962,
      "扁": 2963,
      "扇": 2964,
      "扈": 2965,
      "扉": 2966,
      "手": 2967,
      "才": 2968,
      "打": 2969,
      "托": 2970,
      "扶": 2971,
      "找": 2972,
      "承": 2973,
      "技": 2974,
      "抄": 2975,
      "抓": 2976,
      "投": 2977,
      "抜": 2978,
      "択": 2979,
      "护": 2980,
      "报": 2981,
      "披": 2982,
      "抱": 2983,
      "抵": 2984,
      "担": 2985,
      "拉": 2986,
      "拍": 2987,
      "拏": 2988,
      "拐": 2989,
      "拖": 2990,
      "拘": 2991,
      "招": 2992,
      "拜": 2993,
      "拟": 2994,
      "拥": 2995,
      "括": 2996,
      "拳": 2997,
      "拾": 2998,
      "持": 2999,
      "挂": 3000,
      "指": 3001,
      "挑": 3002,
      "挥": 3003,
      "振": 3004,
      "据": 3005,
      "捷": 3006,
      "授": 3007,
      "掛": 3008,
      "採": 3009,
      "探": 3010,
      "控": 3011,
      "掲": 3012,
      "描": 3013,
      "提": 3014,
      "揚": 3015,
      "換": 3016,
      "援": 3017,
      "揺": 3018,
      "摂": 3019,
      "摩": 3020,
      "摸": 3021,
      "撃": 3022,
      "撒": 3023,
      "撞": 3024,
      "播": 3025,
      "撲": 3026,
      "操": 3027,
      "攝": 3028,
      "支": 3029,
      "收": 3030,
      "改": 3031,
      "攻": 3032,
      "放": 3033,
      "政": 3034,
      "故": 3035,
      "敏": 3036,
      "救": 3037,
      "教": 3038,
      "敢": 3039,
      "散": 3040,
      "敦": 3041,
      "敬": 3042,
      "数": 3043,
      "敵": 3044,
      "敷": 3045,
      "數": 3046,
      "文": 3047,
      "斉": 3048,
      "斎": 3049,
      "斗": 3050,
      "料": 3051,
      "斜": 3052,
      "斤": 3053,
      "斩": 3054,
      "斬": 3055,
      "断": 3056,
      "斯": 3057,
      "新": 3058,
      "方": 3059,
      "於": 3060,
      "施": 3061,
      "旅": 3062,
      "旋": 3063,
      "族": 3064,
      "旗": 3065,
      "无": 3066,
      "日": 3067,
      "旦": 3068,
      "旧": 3069,
      "早": 3070,
      "旭": 3071,
      "时": 3072,
      "旺": 3073,
      "昂": 3074,
      "昇": 3075,
      "昌": 3076,
      "明": 3077,
      "昏": 3078,
      "易": 3079,
      "昔": 3080,
      "星": 3081,
      "映": 3082,
      "春": 3083,
      "昭": 3084,
      "是": 3085,
      "昼": 3086,
      "時": 3087,
      "晉": 3088,
      "晋": 3089,
      "晒": 3090,
      "普": 3091,
      "景": 3092,
      "晴": 3093,
      "晶": 3094,
      "智": 3095,
      "暁": 3096,
      "暂": 3097,
      "暖": 3098,
      "暗": 3099,
      "暦": 3100,
      "暮": 3101,
      "暴": 3102,
      "曆": 3103,
      "曜": 3104,
      "曦": 3105,
      "曲": 3106,
      "更": 3107,
      "書": 3108,
      "曹": 3109,
      "曼": 3110,
      "曾": 3111,
      "最": 3112,
      "會": 3113,
      "月": 3114,
      "有": 3115,
      "朋": 3116,
      "服": 3117,
      "朏": 3118,
      "朔": 3119,
      "朗": 3120,
      "望": 3121,
      "朝": 3122,
      "期": 3123,
      "朧": 3124,
      "木": 3125,
      "未": 3126,
      "末": 3127,
      "本": 3128,
      "札": 3129,
      "朱": 3130,
      "朴": 3131,
      "朵": 3132,
      "机": 3133,
      "朽": 3134,
      "杀": 3135,
      "杂": 3136,
      "权": 3137,
      "李": 3138,
      "杏": 3139,
      "材": 3140,
      "村": 3141,
      "杖": 3142,
      "杜": 3143,
      "束": 3144,
      "条": 3145,
      "来": 3146,
      "杨": 3147,
      "杯": 3148,
      "東": 3149,
      "杲": 3150,
      "松": 3151,
      "板": 3152,
      "极": 3153,
      "析": 3154,
      "林": 3155,
      "枚": 3156,
      "果": 3157,
      "枝": 3158,
      "枭": 3159,
      "枯": 3160,
      "架": 3161,
      "柆": 3162,
      "柏": 3163,
      "柔": 3164,
      "柚": 3165,
      "柩": 3166,
      "柱": 3167,
      "柳": 3168,
      "柴": 3169,
      "査": 3170,
      "栄": 3171,
      "标": 3172,
      "栈": 3173,
      "树": 3174,
      "栖": 3175,
      "栗": 3176,
      "栞": 3177,
      "校": 3178,
      "株": 3179,
      "样": 3180,
      "核": 3181,
      "根": 3182,
      "格": 3183,
      "栽": 3184,
      "栾": 3185,
      "桀": 3186,
      "桂": 3187,
      "桃": 3188,
      "案": 3189,
      "桎": 3190,
      "桐": 3191,
      "桑": 3192,
      "桓": 3193,
      "桜": 3194,
      "桥": 3195,
      "桧": 3196,
      "梁": 3197,
      "梅": 3198,
      "梏": 3199,
      "梓": 3200,
      "條": 3201,
      "梦": 3202,
      "梨": 3203,
      "梭": 3204,
      "梯": 3205,
      "械": 3206,
      "梵": 3207,
      "梶": 3208,
      "棋": 3209,
      "棍": 3210,
      "棗": 3211,
      "棘": 3212,
      "棚": 3213,
      "棟": 3214,
      "森": 3215,
      "棲": 3216,
      "棵": 3217,
      "棺": 3218,
      "椅": 3219,
      "植": 3220,
      "椎": 3221,
      "椒": 3222,
      "椛": 3223,
      "検": 3224,
      "椰": 3225,
      "椿": 3226,
      "楊": 3227,
      "楚": 3228,
      "楠": 3229,
      "業": 3230,
      "楯": 3231,
      "極": 3232,
      "楼": 3233,
      "楽": 3234,
      "概": 3235,
      "榆": 3236,
      "榊": 3237,
      "榔": 3238,
      "榛": 3239,
      "榮": 3240,
      "榴": 3241,
      "槐": 3242,
      "様": 3243,
      "槤": 3244,
      "槻": 3245,
      "樂": 3246,
      "樉": 3247,
      "樊": 3248,
      "樓": 3249,
      "樗": 3250,
      "標": 3251,
      "樛": 3252,
      "模": 3253,
      "権": 3254,
      "横": 3255,
      "樱": 3256,
      "樸": 3257,
      "樹": 3258,
      "橋": 3259,
      "橘": 3260,
      "橚": 3261,
      "機": 3262,
      "橫": 3263,
      "橿": 3264,
      "檀": 3265,
      "檜": 3266,
      "檳": 3267,
      "檻": 3268,
      "櫓": 3269,
      "櫻": 3270,
      "權": 3271,
      "欒": 3272,
      "欠": 3273,
      "次": 3274,
      "欣": 3275,
      "欲": 3276,
      "欽": 3277,
      "歌": 3278,
      "歓": 3279,
      "歡": 3280,
      "止": 3281,
      "正": 3282,
      "步": 3283,
      "武": 3284,
      "歩": 3285,
      "歪": 3286,
      "歲": 3287,
      "歳": 3288,
      "歴": 3289,
      "歷": 3290,
      "歸": 3291,
      "死": 3292,
      "殊": 3293,
      "残": 3294,
      "段": 3295,
      "殺": 3296,
      "殻": 3297,
      "殿": 3298,
      "毅": 3299,
      "母": 3300,
      "毎": 3301,
      "每": 3302,
      "比": 3303,
      "毕": 3304,
      "毘": 3305,
      "毛": 3306,
      "毫": 3307,
      "毬": 3308,
      "氏": 3309,
      "民": 3310,
      "气": 3311,
      "気": 3312,
      "氣": 3313,
      "水": 3314,
      "氷": 3315,
      "永": 3316,
      "氾": 3317,
      "汇": 3318,
      "汉": 3319,
      "汐": 3320,
      "汗": 3321,
      "汝": 3322,
      "江": 3323,
      "池": 3324,
      "汤": 3325,
      "汪": 3326,
      "汰": 3327,
      "汶": 3328,
      "決": 3329,
      "汽": 3330,
      "沂": 3331,
      "沃": 3332,
      "沈": 3333,
      "沉": 3334,
      "沌": 3335,
      "沐": 3336,
      "沒": 3337,
      "沖": 3338,
      "沙": 3339,
      "沛": 3340,
      "没": 3341,
      "沢": 3342,
      "沫": 3343,
      "河": 3344,
      "沸": 3345,
      "油": 3346,
      "治": 3347,
      "沼": 3348,
      "沽": 3349,
      "泉": 3350,
      "泊": 3351,
      "法": 3352,
      "泗": 3353,
      "泡": 3354,
      "波": 3355,
      "泣": 3356,
      "泥": 3357,
      "注": 3358,
      "泰": 3359,
      "泾": 3360,
      "洁": 3361,
      "洋": 3362,
      "洛": 3363,
      "洞": 3364,
      "津": 3365,
      "洪": 3366,
      "洲": 3367,
      "活": 3368,
      "派": 3369,
      "流": 3370,
      "浅": 3371,
      "浙": 3372,
      "浚": 3373,
      "浜": 3374,
      "浦": 3375,
      "浩": 3376,
      "浪": 3377,
      "浮": 3378,
      "海": 3379,
      "消": 3380,
      "涙": 3381,
      "润": 3382,
      "涵": 3383,
      "涼": 3384,
      "淇": 3385,
      "淑": 3386,
      "淘": 3387,
      "淡": 3388,
      "淨": 3389,
      "深": 3390,
      "淳": 3391,
      "淵": 3392,
      "淹": 3393,
      "添": 3394,
      "清": 3395,
      "渊": 3396,
      "渚": 3397,
      "減": 3398,
      "渠": 3399,
      "渡": 3400,
      "渣": 3401,
      "渥": 3402,
      "渦": 3403,
      "温": 3404,
      "測": 3405,
      "港": 3406,
      "游": 3407,
      "渾": 3408,
      "湊": 3409,
      "湖": 3410,
      "湯": 3411,
      "湾": 3412,
      "満": 3413,
      "源": 3414,
      "準": 3415,
      "溜": 3416,
      "溢": 3417,
      "溪": 3418,
      "溫": 3419,
      "溶": 3420,
      "滅": 3421,
      "滋": 3422,
      "滑": 3423,
      "滨": 3424,
      "滿": 3425,
      "漁": 3426,
      "漂": 3427,
      "漆": 3428,
      "漏": 3429,
      "漠": 3430,
      "漢": 3431,
      "漫": 3432,
      "漳": 3433,
      "漸": 3434,
      "潘": 3435,
      "潜": 3436,
      "潤": 3437,
      "澄": 3438,
      "澤": 3439,
      "澪": 3440,
      "激": 3441,
      "濃": 3442,
      "濞": 3443,
      "濟": 3444,
      "瀛": 3445,
      "瀬": 3446,
      "灣": 3447,
      "火": 3448,
      "灯": 3449,
      "灰": 3450,
      "灵": 3451,
      "灶": 3452,
      "灼": 3453,
      "災": 3454,
      "灾": 3455,
      "炎": 3456,
      "炬": 3457,
      "炮": 3458,
      "炯": 3459,
      "炷": 3460,
      "炸": 3461,
      "点": 3462,
      "為": 3463,
      "炼": 3464,
      "烈": 3465,
      "烏": 3466,
      "烙": 3467,
      "烟": 3468,
      "烦": 3469,
      "烧": 3470,
      "焉": 3471,
      "焔": 3472,
      "無": 3473,
      "焦": 3474,
      "然": 3475,
      "焼": 3476,
      "煌": 3477,
      "煙": 3478,
      "煜": 3479,
      "照": 3480,
      "煩": 3481,
      "煮": 3482,
      "熊": 3483,
      "熔": 3484,
      "熙": 3485,
      "熟": 3486,
      "熱": 3487,
      "燃": 3488,
      "燈": 3489,
      "燕": 3490,
      "營": 3491,
      "爆": 3492,
      "爪": 3493,
      "爭": 3494,
      "爱": 3495,
      "爲": 3496,
      "爵": 3497,
      "父": 3498,
      "爺": 3499,
      "爻": 3500,
      "爽": 3501,
      "爾": 3502,
      "片": 3503,
      "版": 3504,
      "牌": 3505,
      "牙": 3506,
      "牛": 3507,
      "牡": 3508,
      "牢": 3509,
      "牧": 3510,
      "物": 3511,
      "牵": 3512,
      "特": 3513,
      "犖": 3514,
      "犬": 3515,
      "犯": 3516,
      "狀": 3517,
      "狂": 3518,
      "狐": 3519,
      "狗": 3520,
      "狛": 3521,
      "狡": 3522,
      "狩": 3523,
      "独": 3524,
      "狭": 3525,
      "狱": 3526,
      "狸": 3527,
      "狼": 3528,
      "猛": 3529,
      "猩": 3530,
      "猪": 3531,
      "猫": 3532,
      "献": 3533,
      "猿": 3534,
      "獄": 3535,
      "獅": 3536,
      "獣": 3537,
      "獵": 3538,
      "獻": 3539,
      "玄": 3540,
      "玉": 3541,
      "王": 3542,
      "玖": 3543,
      "玩": 3544,
      "玲": 3545,
      "珂": 3546,
      "珍": 3547,
      "珙": 3548,
      "珠": 3549,
      "現": 3550,
      "球": 3551,
      "理": 3552,
      "琦": 3553,
      "琪": 3554,
      "琬": 3555,
      "琮": 3556,
      "琴": 3557,
      "瑋": 3558,
      "瑙": 3559,
      "瑜": 3560,
      "瑞": 3561,
      "瑠": 3562,
      "瑣": 3563,
      "瑪": 3564,
      "瑾": 3565,
      "璉": 3566,
      "環": 3567,
      "璽": 3568,
      "瓊": 3569,
      "瓜": 3570,
      "瓢": 3571,
      "瓦": 3572,
      "瓩": 3573,
      "瓷": 3574,
      "甘": 3575,
      "甜": 3576,
      "生": 3577,
      "產": 3578,
      "産": 3579,
      "用": 3580,
      "甫": 3581,
      "田": 3582,
      "由": 3583,
      "甲": 3584,
      "申": 3585,
      "男": 3586,
      "町": 3587,
      "画": 3588,
      "甽": 3589,
      "界": 3590,
      "畑": 3591,
      "留": 3592,
      "畜": 3593,
      "畢": 3594,
      "略": 3595,
      "番": 3596,
      "畫": 3597,
      "異": 3598,
      "疾": 3599,
      "病": 3600,
      "症": 3601,
      "痘": 3602,
      "痛": 3603,
      "痴": 3604,
      "瘡": 3605,
      "瘤": 3606,
      "発": 3607,
      "登": 3608,
      "發": 3609,
      "白": 3610,
      "百": 3611,
      "的": 3612,
      "皇": 3613,
      "皙": 3614,
      "皮": 3615,
      "皿": 3616,
      "盆": 3617,
      "盈": 3618,
      "益": 3619,
      "盏": 3620,
      "盐": 3621,
      "监": 3622,
      "盒": 3623,
      "盗": 3624,
      "盘": 3625,
      "盛": 3626,
      "盟": 3627,
      "監": 3628,
      "盤": 3629,
      "盧": 3630,
      "目": 3631,
      "直": 3632,
      "相": 3633,
      "盼": 3634,
      "省": 3635,
      "看": 3636,
      "県": 3637,
      "眞": 3638,
      "真": 3639,
      "眼": 3640,
      "着": 3641,
      "督": 3642,
      "瞬": 3643,
      "瞳": 3644,
      "矢": 3645,
      "知": 3646,
      "矩": 3647,
      "短": 3648,
      "矮": 3649,
      "矯": 3650,
      "石": 3651,
      "砂": 3652,
      "砍": 3653,
      "研": 3654,
      "砖": 3655,
      "砲": 3656,
      "破": 3657,
      "硕": 3658,
      "硝": 3659,
      "硨": 3660,
      "碍": 3661,
      "碗": 3662,
      "碩": 3663,
      "確": 3664,
      "碼": 3665,
      "磁": 3666,
      "磅": 3667,
      "磐": 3668,
      "磨": 3669,
      "磯": 3670,
      "磲": 3671,
      "礁": 3672,
      "礎": 3673,
      "礮": 3674,
      "示": 3675,
      "礼": 3676,
      "社": 3677,
      "祀": 3678,
      "祈": 3679,
      "祐": 3680,
      "祖": 3681,
      "祚": 3682,
      "神": 3683,
      "祠": 3684,
      "祥": 3685,
      "票": 3686,
      "祭": 3687,
      "祺": 3688,
      "祿": 3689,
      "禁": 3690,
      "禄": 3691,
      "禎": 3692,
      "福": 3693,
      "禦": 3694,
      "禮": 3695,
      "禰": 3696,
      "禺": 3697,
      "禾": 3698,
      "秀": 3699,
      "私": 3700,
      "秋": 3701,
      "科": 3702,
      "秒": 3703,
      "秘": 3704,
      "租": 3705,
      "秤": 3706,
      "秦": 3707,
      "移": 3708,
      "程": 3709,
      "稔": 3710,
      "稚": 3711,
      "種": 3712,
      "稲": 3713,
      "稷": 3714,
      "穂": 3715,
      "穌": 3716,
      "積": 3717,
      "穎": 3718,
      "穗": 3719,
      "穢": 3720,
      "究": 3721,
      "空": 3722,
      "突": 3723,
      "窓": 3724,
      "窗": 3725,
      "窟": 3726,
      "竇": 3727,
      "立": 3728,
      "站": 3729,
      "竜": 3730,
      "章": 3731,
      "童": 3732,
      "端": 3733,
      "竹": 3734,
      "竺": 3735,
      "笑": 3736,
      "笔": 3737,
      "笛": 3738,
      "笠": 3739,
      "符": 3740,
      "笨": 3741,
      "第": 3742,
      "笹": 3743,
      "筆": 3744,
      "等": 3745,
      "筋": 3746,
      "筍": 3747,
      "筐": 3748,
      "筑": 3749,
      "答": 3750,
      "策": 3751,
      "筹": 3752,
      "箇": 3753,
      "算": 3754,
      "管": 3755,
      "箪": 3756,
      "箭": 3757,
      "箱": 3758,
      "節": 3759,
      "範": 3760,
      "篇": 3761,
      "篋": 3762,
      "篚": 3763,
      "篤": 3764,
      "簡": 3765,
      "簿": 3766,
      "籃": 3767,
      "籌": 3768,
      "籍": 3769,
      "籠": 3770,
      "米": 3771,
      "籵": 3772,
      "粁": 3773,
      "粉": 3774,
      "粍": 3775,
      "粟": 3776,
      "粥": 3777,
      "粨": 3778,
      "精": 3779,
      "糊": 3780,
      "糎": 3781,
      "糖": 3782,
      "糸": 3783,
      "系": 3784,
      "紀": 3785,
      "約": 3786,
      "紅": 3787,
      "紋": 3788,
      "納": 3789,
      "純": 3790,
      "紘": 3791,
      "紙": 3792,
      "級": 3793,
      "素": 3794,
      "紡": 3795,
      "紫": 3796,
      "細": 3797,
      "紹": 3798,
      "紺": 3799,
      "終": 3800,
      "組": 3801,
      "絆": 3802,
      "経": 3803,
      "結": 3804,
      "絡": 3805,
      "給": 3806,
      "統": 3807,
      "絵": 3808,
      "絶": 3809,
      "綁": 3810,
      "經": 3811,
      "継": 3812,
      "続": 3813,
      "綜": 3814,
      "綠": 3815,
      "維": 3816,
      "綯": 3817,
      "綱": 3818,
      "網": 3819,
      "綸": 3820,
      "綺": 3821,
      "綾": 3822,
      "緋": 3823,
      "総": 3824,
      "緑": 3825,
      "緒": 3826,
      "線": 3827,
      "締": 3828,
      "編": 3829,
      "緩": 3830,
      "緯": 3831,
      "縄": 3832,
      "縊": 3833,
      "縣": 3834,
      "總": 3835,
      "繋": 3836,
      "織": 3837,
      "繼": 3838,
      "續": 3839,
      "红": 3840,
      "级": 3841,
      "纪": 3842,
      "纯": 3843,
      "纲": 3844,
      "纵": 3845,
      "线": 3846,
      "组": 3847,
      "绅": 3848,
      "细": 3849,
      "终": 3850,
      "绍": 3851,
      "经": 3852,
      "给": 3853,
      "统": 3854,
      "继": 3855,
      "绮": 3856,
      "维": 3857,
      "综": 3858,
      "缽": 3859,
      "网": 3860,
      "罗": 3861,
      "罠": 3862,
      "罪": 3863,
      "置": 3864,
      "罰": 3865,
      "罸": 3866,
      "羅": 3867,
      "羊": 3868,
      "美": 3869,
      "群": 3870,
      "義": 3871,
      "羽": 3872,
      "翁": 3873,
      "習": 3874,
      "翔": 3875,
      "翘": 3876,
      "翠": 3877,
      "翡": 3878,
      "翱": 3879,
      "翹": 3880,
      "翻": 3881,
      "翼": 3882,
      "老": 3883,
      "考": 3884,
      "者": 3885,
      "耆": 3886,
      "而": 3887,
      "耕": 3888,
      "耳": 3889,
      "耶": 3890,
      "耿": 3891,
      "聃": 3892,
      "联": 3893,
      "聖": 3894,
      "聘": 3895,
      "聚": 3896,
      "聞": 3897,
      "聡": 3898,
      "聯": 3899,
      "聰": 3900,
      "聲": 3901,
      "職": 3902,
      "肃": 3903,
      "肉": 3904,
      "肖": 3905,
      "肚": 3906,
      "股": 3907,
      "肥": 3908,
      "肩": 3909,
      "育": 3910,
      "胞": 3911,
      "胠": 3912,
      "胡": 3913,
      "胤": 3914,
      "胴": 3915,
      "胸": 3916,
      "能": 3917,
      "脂": 3918,
      "脇": 3919,
      "脈": 3920,
      "脉": 3921,
      "脚": 3922,
      "脩": 3923,
      "脱": 3924,
      "脳": 3925,
      "腎": 3926,
      "腐": 3927,
      "腰": 3928,
      "腹": 3929,
      "腿": 3930,
      "膀": 3931,
      "膺": 3932,
      "臂": 3933,
      "臘": 3934,
      "臚": 3935,
      "臣": 3936,
      "臨": 3937,
      "自": 3938,
      "臭": 3939,
      "至": 3940,
      "致": 3941,
      "臺": 3942,
      "與": 3943,
      "興": 3944,
      "舍": 3945,
      "舎": 3946,
      "舞": 3947,
      "舟": 3948,
      "航": 3949,
      "船": 3950,
      "艦": 3951,
      "良": 3952,
      "色": 3953,
      "艳": 3954,
      "艶": 3955,
      "艺": 3956,
      "节": 3957,
      "芒": 3958,
      "芙": 3959,
      "芝": 3960,
      "芦": 3961,
      "芬": 3962,
      "芭": 3963,
      "芮": 3964,
      "芯": 3965,
      "花": 3966,
      "芳": 3967,
      "芸": 3968,
      "芹": 3969,
      "芽": 3970,
      "苏": 3971,
      "苑": 3972,
      "苗": 3973,
      "苣": 3974,
      "若": 3975,
      "英": 3976,
      "苺": 3977,
      "茂": 3978,
      "范": 3979,
      "茅": 3980,
      "茜": 3981,
      "茶": 3982,
      "茸": 3983,
      "草": 3984,
      "荊": 3985,
      "荒": 3986,
      "荔": 3987,
      "荘": 3988,
      "荥": 3989,
      "荪": 3990,
      "荫": 3991,
      "药": 3992,
      "荷": 3993,
      "荻": 3994,
      "荼": 3995,
      "莉": 3996,
      "莊": 3997,
      "莎": 3998,
      "莘": 3999,
      "莞": 4000,
      "莫": 4001,
      "莱": 4002,
      "莲": 4003,
      "莴": 4004,
      "菇": 4005,
      "菉": 4006,
      "菊": 4007,
      "菜": 4008,
      "華": 4009,
      "菱": 4010,
      "菲": 4011,
      "萌": 4012,
      "萍": 4013,
      "萝": 4014,
      "营": 4015,
      "萧": 4016,
      "萨": 4017,
      "萬": 4018,
      "落": 4019,
      "葆": 4020,
      "葉": 4021,
      "著": 4022,
      "葛": 4023,
      "董": 4024,
      "葦": 4025,
      "葫": 4026,
      "葵": 4027,
      "蒙": 4028,
      "蒭": 4029,
      "蒲": 4030,
      "蒼": 4031,
      "蒿": 4032,
      "蓀": 4033,
      "蓑": 4034,
      "蓝": 4035,
      "蓮": 4036,
      "蔡": 4037,
      "蔭": 4038,
      "蔵": 4039,
      "蕃": 4040,
      "蕉": 4041,
      "蕨": 4042,
      "蕩": 4043,
      "蕭": 4044,
      "薇": 4045,
      "薊": 4046,
      "薔": 4047,
      "薙": 4048,
      "薛": 4049,
      "薩": 4050,
      "薫": 4051,
      "薯": 4052,
      "藍": 4053,
      "藏": 4054,
      "藕": 4055,
      "藝": 4056,
      "藤": 4057,
      "藥": 4058,
      "藩": 4059,
      "藻": 4060,
      "蘄": 4061,
      "蘅": 4062,
      "蘇": 4063,
      "蘑": 4064,
      "蘭": 4065,
      "虎": 4066,
      "虐": 4067,
      "虔": 4068,
      "處": 4069,
      "虚": 4070,
      "虛": 4071,
      "號": 4072,
      "虫": 4073,
      "虹": 4074,
      "蛇": 4075,
      "蛍": 4076,
      "蛙": 4077,
      "蛭": 4078,
      "蜃": 4079,
      "蜡": 4080,
      "蝉": 4081,
      "蝕": 4082,
      "蝶": 4083,
      "融": 4084,
      "螺": 4085,
      "蟲": 4086,
      "蠕": 4087,
      "蠻": 4088,
      "血": 4089,
      "衆": 4090,
      "行": 4091,
      "術": 4092,
      "街": 4093,
      "衙": 4094,
      "衛": 4095,
      "衝": 4096,
      "衡": 4097,
      "衢": 4098,
      "衣": 4099,
      "补": 4100,
      "表": 4101,
      "袁": 4102,
      "袈": 4103,
      "袖": 4104,
      "被": 4105,
      "裁": 4106,
      "裂": 4107,
      "装": 4108,
      "裏": 4109,
      "裔": 4110,
      "裕": 4111,
      "補": 4112,
      "裟": 4113,
      "裳": 4114,
      "裸": 4115,
      "製": 4116,
      "褒": 4117,
      "襄": 4118,
      "襟": 4119,
      "襲": 4120,
      "西": 4121,
      "要": 4122,
      "覇": 4123,
      "見": 4124,
      "規": 4125,
      "視": 4126,
      "覚": 4127,
      "親": 4128,
      "観": 4129,
      "覺": 4130,
      "觀": 4131,
      "观": 4132,
      "角": 4133,
      "解": 4134,
      "触": 4135,
      "觳": 4136,
      "言": 4137,
      "計": 4138,
      "記": 4139,
      "設": 4140,
      "許": 4141,
      "訳": 4142,
      "証": 4143,
      "詔": 4144,
      "詞": 4145,
      "詠": 4146,
      "試": 4147,
      "詩": 4148,
      "話": 4149,
      "誌": 4150,
      "誐": 4151,
      "誒": 4152,
      "誓": 4153,
      "誕": 4154,
      "誘": 4155,
      "語": 4156,
      "誠": 4157,
      "誡": 4158,
      "誦": 4159,
      "說": 4160,
      "説": 4161,
      "読": 4162,
      "誰": 4163,
      "課": 4164,
      "調": 4165,
      "談": 4166,
      "論": 4167,
      "諭": 4168,
      "諷": 4169,
      "諸": 4170,
      "謀": 4171,
      "謁": 4172,
      "謎": 4173,
      "謙": 4174,
      "講": 4175,
      "謝": 4176,
      "謡": 4177,
      "識": 4178,
      "譚": 4179,
      "譜": 4180,
      "警": 4181,
      "議": 4182,
      "護": 4183,
      "讀": 4184,
      "變": 4185,
      "讐": 4186,
      "讓": 4187,
      "计": 4188,
      "让": 4189,
      "议": 4190,
      "许": 4191,
      "论": 4192,
      "讼": 4193,
      "诉": 4194,
      "词": 4195,
      "诗": 4196,
      "诚": 4197,
      "话": 4198,
      "语": 4199,
      "诶": 4200,
      "请": 4201,
      "诺": 4202,
      "读": 4203,
      "课": 4204,
      "谁": 4205,
      "谦": 4206,
      "谭": 4207,
      "谷": 4208,
      "豆": 4209,
      "豊": 4210,
      "豌": 4211,
      "豐": 4212,
      "豚": 4213,
      "象": 4214,
      "豪": 4215,
      "豫": 4216,
      "豬": 4217,
      "豹": 4218,
      "貓": 4219,
      "貝": 4220,
      "貞": 4221,
      "負": 4222,
      "財": 4223,
      "貫": 4224,
      "貴": 4225,
      "費": 4226,
      "賀": 4227,
      "資": 4228,
      "賈": 4229,
      "賊": 4230,
      "賓": 4231,
      "賞": 4232,
      "賢": 4233,
      "賦": 4234,
      "質": 4235,
      "購": 4236,
      "贝": 4237,
      "贞": 4238,
      "财": 4239,
      "贤": 4240,
      "质": 4241,
      "贵": 4242,
      "贺": 4243,
      "贼": 4244,
      "资": 4245,
      "赤": 4246,
      "赭": 4247,
      "走": 4248,
      "赵": 4249,
      "起": 4250,
      "超": 4251,
      "越": 4252,
      "趙": 4253,
      "足": 4254,
      "跆": 4255,
      "跑": 4256,
      "跖": 4257,
      "跟": 4258,
      "跡": 4259,
      "路": 4260,
      "跳": 4261,
      "踊": 4262,
      "踏": 4263,
      "踢": 4264,
      "蹴": 4265,
      "身": 4266,
      "車": 4267,
      "軌": 4268,
      "軍": 4269,
      "軒": 4270,
      "転": 4271,
      "軽": 4272,
      "載": 4273,
      "輔": 4274,
      "輛": 4275,
      "輝": 4276,
      "輪": 4277,
      "輿": 4278,
      "轉": 4279,
      "车": 4280,
      "轩": 4281,
      "转": 4282,
      "辆": 4283,
      "辉": 4284,
      "辛": 4285,
      "辣": 4286,
      "辭": 4287,
      "辯": 4288,
      "辰": 4289,
      "農": 4290,
      "边": 4291,
      "辺": 4292,
      "辽": 4293,
      "达": 4294,
      "辿": 4295,
      "迄": 4296,
      "迅": 4297,
      "过": 4298,
      "迈": 4299,
      "运": 4300,
      "近": 4301,
      "返": 4302,
      "这": 4303,
      "进": 4304,
      "远": 4305,
      "迦": 4306,
      "迪": 4307,
      "述": 4308,
      "迷": 4309,
      "追": 4310,
      "送": 4311,
      "适": 4312,
      "逆": 4313,
      "选": 4314,
      "這": 4315,
      "通": 4316,
      "造": 4317,
      "逢": 4318,
      "連": 4319,
      "逯": 4320,
      "週": 4321,
      "進": 4322,
      "遁": 4323,
      "遇": 4324,
      "遊": 4325,
      "運": 4326,
      "遍": 4327,
      "過": 4328,
      "道": 4329,
      "達": 4330,
      "遗": 4331,
      "遙": 4332,
      "遜": 4333,
      "遠": 4334,
      "遥": 4335,
      "遮": 4336,
      "選": 4337,
      "遺": 4338,
      "遼": 4339,
      "避": 4340,
      "邁": 4341,
      "還": 4342,
      "邊": 4343,
      "邑": 4344,
      "邓": 4345,
      "那": 4346,
      "邦": 4347,
      "邪": 4348,
      "邱": 4349,
      "郁": 4350,
      "郊": 4351,
      "郎": 4352,
      "郑": 4353,
      "郛": 4354,
      "郝": 4355,
      "郡": 4356,
      "部": 4357,
      "郭": 4358,
      "郷": 4359,
      "都": 4360,
      "鄧": 4361,
      "鄭": 4362,
      "酈": 4363,
      "酉": 4364,
      "酒": 4365,
      "酔": 4366,
      "酥": 4367,
      "酱": 4368,
      "酷": 4369,
      "酸": 4370,
      "醋": 4371,
      "醒": 4372,
      "醫": 4373,
      "采": 4374,
      "釈": 4375,
      "釋": 4376,
      "里": 4377,
      "重": 4378,
      "野": 4379,
      "量": 4380,
      "金": 4381,
      "釗": 4382,
      "釣": 4383,
      "鈍": 4384,
      "鈴": 4385,
      "鉄": 4386,
      "鉢": 4387,
      "鉦": 4388,
      "鉱": 4389,
      "鉴": 4390,
      "銀": 4391,
      "銃": 4392,
      "銅": 4393,
      "銓": 4394,
      "銖": 4395,
      "銘": 4396,
      "銳": 4397,
      "鋒": 4398,
      "鋪": 4399,
      "鋼": 4400,
      "錄": 4401,
      "錡": 4402,
      "錦": 4403,
      "錬": 4404,
      "録": 4405,
      "鍋": 4406,
      "鍵": 4407,
      "鎖": 4408,
      "鎧": 4409,
      "鎮": 4410,
      "鏡": 4411,
      "鐘": 4412,
      "鐵": 4413,
      "鐸": 4414,
      "鑒": 4415,
      "钊": 4416,
      "钢": 4417,
      "钦": 4418,
      "钱": 4419,
      "铁": 4420,
      "铎": 4421,
      "铜": 4422,
      "铭": 4423,
      "铺": 4424,
      "锡": 4425,
      "键": 4426,
      "镇": 4427,
      "镗": 4428,
      "镜": 4429,
      "長": 4430,
      "长": 4431,
      "門": 4432,
      "閃": 4433,
      "開": 4434,
      "閏": 4435,
      "閒": 4436,
      "間": 4437,
      "関": 4438,
      "閣": 4439,
      "閨": 4440,
      "闇": 4441,
      "闍": 4442,
      "闕": 4443,
      "闘": 4444,
      "關": 4445,
      "门": 4446,
      "问": 4447,
      "闯": 4448,
      "阁": 4449,
      "阪": 4450,
      "防": 4451,
      "阳": 4452,
      "阿": 4453,
      "陀": 4454,
      "附": 4455,
      "际": 4456,
      "陈": 4457,
      "降": 4458,
      "限": 4459,
      "陛": 4460,
      "院": 4461,
      "陣": 4462,
      "除": 4463,
      "陪": 4464,
      "陳": 4465,
      "陵": 4466,
      "陶": 4467,
      "陸": 4468,
      "険": 4469,
      "陽": 4470,
      "隆": 4471,
      "隊": 4472,
      "階": 4473,
      "隔": 4474,
      "隗": 4475,
      "隠": 4476,
      "隣": 4477,
      "隱": 4478,
      "隴": 4479,
      "隸": 4480,
      "隻": 4481,
      "隼": 4482,
      "雀": 4483,
      "雁": 4484,
      "雄": 4485,
      "雅": 4486,
      "集": 4487,
      "雇": 4488,
      "雉": 4489,
      "雎": 4490,
      "雕": 4491,
      "雙": 4492,
      "雛": 4493,
      "雜": 4494,
      "雞": 4495,
      "離": 4496,
      "難": 4497,
      "雨": 4498,
      "雪": 4499,
      "雲": 4500,
      "雳": 4501,
      "零": 4502,
      "雷": 4503,
      "電": 4504,
      "雾": 4505,
      "需": 4506,
      "霆": 4507,
      "震": 4508,
      "霊": 4509,
      "霍": 4510,
      "霖": 4511,
      "霜": 4512,
      "霞": 4513,
      "霧": 4514,
      "霰": 4515,
      "露": 4516,
      "霸": 4517,
      "霹": 4518,
      "靂": 4519,
      "靈": 4520,
      "青": 4521,
      "靖": 4522,
      "静": 4523,
      "非": 4524,
      "靠": 4525,
      "面": 4526,
      "革": 4527,
      "靴": 4528,
      "靼": 4529,
      "鞋": 4530,
      "鞍": 4531,
      "鞠": 4532,
      "韃": 4533,
      "韋": 4534,
      "韓": 4535,
      "韦": 4536,
      "韩": 4537,
      "韭": 4538,
      "音": 4539,
      "韶": 4540,
      "響": 4541,
      "頃": 4542,
      "項": 4543,
      "順": 4544,
      "須": 4545,
      "頌": 4546,
      "領": 4547,
      "頭": 4548,
      "顆": 4549,
      "題": 4550,
      "額": 4551,
      "顏": 4552,
      "顔": 4553,
      "願": 4554,
      "顯": 4555,
      "项": 4556,
      "顾": 4557,
      "颂": 4558,
      "颊": 4559,
      "颖": 4560,
      "颗": 4561,
      "颜": 4562,
      "風": 4563,
      "颪": 4564,
      "颱": 4565,
      "飄": 4566,
      "风": 4567,
      "飛": 4568,
      "飞": 4569,
      "食": 4570,
      "飯": 4571,
      "飾": 4572,
      "餅": 4573,
      "養": 4574,
      "餓": 4575,
      "館": 4576,
      "饼": 4577,
      "馆": 4578,
      "馒": 4579,
      "首": 4580,
      "香": 4581,
      "馬": 4582,
      "馮": 4583,
      "駆": 4584,
      "駐": 4585,
      "駒": 4586,
      "駙": 4587,
      "駢": 4588,
      "駿": 4589,
      "騎": 4590,
      "騒": 4591,
      "験": 4592,
      "騭": 4593,
      "騰": 4594,
      "騷": 4595,
      "驁": 4596,
      "驚": 4597,
      "驤": 4598,
      "马": 4599,
      "驰": 4600,
      "骨": 4601,
      "骸": 4602,
      "髀": 4603,
      "高": 4604,
      "髪": 4605,
      "鬘": 4606,
      "鬥": 4607,
      "鬪": 4608,
      "鬼": 4609,
      "魂": 4610,
      "魄": 4611,
      "魔": 4612,
      "魚": 4613,
      "魯": 4614,
      "鮑": 4615,
      "鮫": 4616,
      "鮮": 4617,
      "鯖": 4618,
      "鯵": 4619,
      "鰐": 4620,
      "鱀": 4621,
      "鱼": 4622,
      "鲁": 4623,
      "鲤": 4624,
      "鳥": 4625,
      "鳩": 4626,
      "鳳": 4627,
      "鳴": 4628,
      "鳶": 4629,
      "鴉": 4630,
      "鴣": 4631,
      "鴨": 4632,
      "鴻": 4633,
      "鵡": 4634,
      "鵩": 4635,
      "鵬": 4636,
      "鶍": 4637,
      "鶴": 4638,
      "鷓": 4639,
      "鷹": 4640,
      "鷺": 4641,
      "鸚": 4642,
      "鸟": 4643,
      "鸡": 4644,
      "鸭": 4645,
      "鸿": 4646,
      "鹅": 4647,
      "鹹": 4648,
      "鹼": 4649,
      "鹽": 4650,
      "鹿": 4651,
      "麗": 4652,
      "麥": 4653,
      "麵": 4654,
      "麻": 4655,
      "麼": 4656,
      "麾": 4657,
      "黃": 4658,
      "黄": 4659,
      "黎": 4660,
      "黑": 4661,
      "黒": 4662,
      "黙": 4663,
      "黛": 4664,
      "黨": 4665,
      "鼉": 4666,
      "鼎": 4667,
      "鼓": 4668,
      "鼠": 4669,
      "鼻": 4670,
      "齉": 4671,
      "齊": 4672,
      "齋": 4673,
      "齐": 4674,
      "龍": 4675,
      "龙": 4676,
      "ꜛ": 4677,
      "ꜜ": 4678,
      "ꜣ": 4679,
      "ꜩ": 4680,
      "ꜫ": 4681,
      "ꜭ": 4682,
      "ꞅ": 4683,
      "ꞎ": 4684,
      "Ʞ": 4685,
      "ꞵ": 4686,
      "ꦂ": 4687,
      "ꦠ": 4688,
      "ꦯ": 4689,
      "ꦲ": 4690,
      "ꦸ": 4691,
      "ꭓ": 4692,
      "가": 4693,
      "간": 4694,
      "강": 4695,
      "개": 4696,
      "거": 4697,
      "건": 4698,
      "경": 4699,
      "계": 4700,
      "고": 4701,
      "공": 4702,
      "관": 4703,
      "광": 4704,
      "구": 4705,
      "국": 4706,
      "권": 4707,
      "귀": 4708,
      "그": 4709,
      "극": 4710,
      "근": 4711,
      "글": 4712,
      "금": 4713,
      "급": 4714,
      "기": 4715,
      "김": 4716,
      "꺼": 4717,
      "껐": 4718,
      "나": 4719,
      "날": 4720,
      "남": 4721,
      "났": 4722,
      "내": 4723,
      "너": 4724,
      "네": 4725,
      "념": 4726,
      "노": 4727,
      "놔": 4728,
      "눈": 4729,
      "늬": 4730,
      "다": 4731,
      "단": 4732,
      "대": 4733,
      "더": 4734,
      "도": 4735,
      "독": 4736,
      "돌": 4737,
      "동": 4738,
      "디": 4739,
      "딱": 4740,
      "라": 4741,
      "람": 4742,
      "래": 4743,
      "런": 4744,
      "렌": 4745,
      "려": 4746,
      "렬": 4747,
      "로": 4748,
      "록": 4749,
      "론": 4750,
      "루": 4751,
      "류": 4752,
      "르": 4753,
      "를": 4754,
      "리": 4755,
      "립": 4756,
      "마": 4757,
      "막": 4758,
      "만": 4759,
      "말": 4760,
      "명": 4761,
      "목": 4762,
      "무": 4763,
      "문": 4764,
      "물": 4765,
      "미": 4766,
      "민": 4767,
      "믿": 4768,
      "바": 4769,
      "박": 4770,
      "방": 4771,
      "백": 4772,
      "뱅": 4773,
      "버": 4774,
      "범": 4775,
      "법": 4776,
      "별": 4777,
      "병": 4778,
      "보": 4779,
      "복": 4780,
      "봐": 4781,
      "부": 4782,
      "불": 4783,
      "붉": 4784,
      "빅": 4785,
      "빙": 4786,
      "빤": 4787,
      "뿐": 4788,
      "사": 4789,
      "산": 4790,
      "살": 4791,
      "삼": 4792,
      "삿": 4793,
      "상": 4794,
      "새": 4795,
      "색": 4796,
      "서": 4797,
      "성": 4798,
      "센": 4799,
      "소": 4800,
      "쇼": 4801,
      "수": 4802,
      "순": 4803,
      "술": 4804,
      "숫": 4805,
      "스": 4806,
      "시": 4807,
      "식": 4808,
      "신": 4809,
      "실": 4810,
      "쌤": 4811,
      "아": 4812,
      "안": 4813,
      "알": 4814,
      "암": 4815,
      "앙": 4816,
      "애": 4817,
      "앤": 4818,
      "야": 4819,
      "양": 4820,
      "어": 4821,
      "에": 4822,
      "엔": 4823,
      "연": 4824,
      "영": 4825,
      "예": 4826,
      "오": 4827,
      "온": 4828,
      "왜": 4829,
      "용": 4830,
      "운": 4831,
      "울": 4832,
      "원": 4833,
      "위": 4834,
      "유": 4835,
      "은": 4836,
      "을": 4837,
      "음": 4838,
      "의": 4839,
      "이": 4840,
      "인": 4841,
      "일": 4842,
      "자": 4843,
      "장": 4844,
      "재": 4845,
      "적": 4846,
      "전": 4847,
      "점": 4848,
      "정": 4849,
      "제": 4850,
      "조": 4851,
      "종": 4852,
      "좋": 4853,
      "주": 4854,
      "줄": 4855,
      "중": 4856,
      "지": 4857,
      "진": 4858,
      "집": 4859,
      "짓": 4860,
      "징": 4861,
      "차": 4862,
      "천": 4863,
      "청": 4864,
      "체": 4865,
      "쳐": 4866,
      "초": 4867,
      "춘": 4868,
      "충": 4869,
      "치": 4870,
      "커": 4871,
      "코": 4872,
      "킨": 4873,
      "타": 4874,
      "태": 4875,
      "터": 4876,
      "퇴": 4877,
      "투": 4878,
      "트": 4879,
      "특": 4880,
      "파": 4881,
      "판": 4882,
      "퍼": 4883,
      "평": 4884,
      "표": 4885,
      "풍": 4886,
      "피": 4887,
      "하": 4888,
      "학": 4889,
      "한": 4890,
      "합": 4891,
      "해": 4892,
      "행": 4893,
      "향": 4894,
      "허": 4895,
      "헬": 4896,
      "호": 4897,
      "혹": 4898,
      "홀": 4899,
      "화": 4900,
      "회": 4901,
      "후": 4902,
      "희": 4903,
      "ﬀ": 4904,
      "ﬁ": 4905,
      "ﬂ": 4906,
      "ﮭ": 4907,
      "ﮮ": 4908,
      "ﷲ": 4909,
      "ﷺ": 4910,
      "️": 4911,
      "︠": 4912,
      "︡": 4913,
      "ﺒ": 4914,
      "ﻉ": 4915,
      "ﻋ": 4916,
      "ﻔ": 4917,
      "ﻴ": 4918,
      "﻿": 4919,
      "！": 4920,
      "％": 4921,
      "＆": 4922,
      "（": 4923,
      "）": 4924,
      "，": 4925,
      "－": 4926,
      "／": 4927,
      "１": 4928,
      "２": 4929,
      "３": 4930,
      "４": 4931,
      "６": 4932,
      "：": 4933,
      "＜": 4934,
      "＝": 4935,
      "＞": 4936,
      "？": 4937,
      "Ａ": 4938,
      "Ｃ": 4939,
      "Ｄ": 4940,
      "Ｇ": 4941,
      "Ｉ": 4942,
      "Ｊ": 4943,
      "Ｌ": 4944,
      "Ｍ": 4945,
      "Ｐ": 4946,
      "Ｒ": 4947,
      "Ｘ": 4948,
      "［": 4949,
      "］": 4950,
      "｜": 4951,
      "～": 4952,
      "｢": 4953,
      "｣": 4954,
      "･": 4955,
      "ｰ": 4956,
      "￥": 4957,
      "�": 4958,
      "𐀁": 4959,
      "𐀈": 4960,
      "𐀫": 4961,
      "𐎠": 4962,
      "𐎢": 4963,
      "𐎭": 4964,
      "𐎰": 4965,
      "𐎹": 4966,
      "𐎺": 4967,
      "𐎼": 4968,
      "𐏁": 4969,
      "𐭃": 4970,
      "𐭉": 4971,
      "𐭓": 4972,
      "𐭕": 4973,
      "𒀯": 4974,
      "𒀳": 4975,
      "𝕄": 4976,
      "𝕡": 4977,
      "🖕": 4978,
      "th": 4979,
      "in": 4980,
      "er": 4981,
      "an": 4982,
      "the": 4983,
      "on": 4984,
      "ed": 4985,
      "re": 4986,
      "at": 4987,
      "en": 4988,
      "or": 4989,
      "al": 4990,
      "st": 4991,
      "ar": 4992,
      "and": 4993,
      "as": 4994,
      "of": 4995,
      "ing": 4996,
      "es": 4997,
      "to": 4998,
      "is": 4999,
      "it": 5000,
      "ou": 5001,
      "ic": 5002,
      "ion": 5003,
      "le": 5004,
      "he": 5005,
      "ro": 5006,
      "il": 5007,
      "ac": 5008,
      "ent": 5009,
      "ad": 5010,
      "se": 5011,
      "am": 5012,
      "om": 5013,
      "be": 5014,
      "ly": 5015,
      "was": 5016,
      "for": 5017,
      "ch": 5018,
      "ve": 5019,
      "de": 5020,
      "ur": 5021,
      "ol": 5022,
      "ir": 5023,
      "The": 5024,
      "im": 5025,
      "-@": 5026,
      "@-@": 5027,
      "ig": 5028,
      "ver": 5029,
      "ter": 5030,
      "wh": 5031,
      "ow": 5032,
      "un": 5033,
      "ith": 5034,
      "ce": 5035,
      "ay": 5036,
      "id": 5037,
      "con": 5038,
      "ation": 5039,
      "ct": 5040,
      "with": 5041,
      "ag": 5042,
      "that": 5043,
      "te": 5044,
      "by": 5045,
      "us": 5046,
      "ot": 5047,
      "el": 5048,
      "ere": 5049,
      "ri": 5050,
      "ul": 5051,
      "ap": 5052,
      "et": 5053,
      "ut": 5054,
      "19": 5055,
      "res": 5056,
      "ain": 5057,
      "ers": 5058,
      "op": 5059,
      "pl": 5060,
      "com": 5061,
      "his": 5062,
      "rom": 5063,
      "um": 5064,
      "all": 5065,
      "00": 5066,
      "ab": 5067,
      "oun": 5068,
      "ist": 5069,
      "mo": 5070,
      "su": 5071,
      "ne": 5072,
      "sh": 5073,
      "pro": 5074,
      "pe": 5075,
      "from": 5076,
      "In": 5077,
      "cl": 5078,
      "ate": 5079,
      "are": 5080,
      "li": 5081,
      "tr": 5082,
      "art": 5083,
      "ther": 5084,
      "os": 5085,
      "igh": 5086,
      "em": 5087,
      "di": 5088,
      "ex": 5089,
      "ber": 5090,
      "est": 5091,
      "ich": 5092,
      "ak": 5093,
      "were": 5094,
      "ld": 5095,
      "oc": 5096,
      "ill": 5097,
      "ard": 5098,
      "ast": 5099,
      "ies": 5100,
      "ant": 5101,
      "per": 5102,
      "ong": 5103,
      "qu": 5104,
      "gh": 5105,
      "ment": 5106,
      "ated": 5107,
      "man": 5108,
      "ive": 5109,
      "out": 5110,
      "ame": 5111,
      "ity": 5112,
      "ess": 5113,
      "fe": 5114,
      "od": 5115,
      "our": 5116,
      "had": 5117,
      "end": 5118,
      "ish": 5119,
      "ack": 5120,
      "ort": 5121,
      "one": 5122,
      "als": 5123,
      "av": 5124,
      "ge": 5125,
      "over": 5126,
      "ear": 5127,
      "tw": 5128,
      "af": 5129,
      "ip": 5130,
      "which": 5131,
      "ough": 5132,
      "der": 5133,
      "but": 5134,
      "not": 5135,
      "vi": 5136,
      "gr": 5137,
      "ass": 5138,
      "act": 5139,
      "ally": 5140,
      "ound": 5141,
      "ave": 5142,
      "str": 5143,
      "ine": 5144,
      "ight": 5145,
      "her": 5146,
      "ary": 5147,
      "rit": 5148,
      "ud": 5149,
      "its": 5150,
      "iv": 5151,
      "du": 5152,
      "pr": 5153,
      "ian": 5154,
      "ep": 5155,
      "if": 5156,
      "St": 5157,
      "Ch": 5158,
      "ore": 5159,
      "20": 5160,
      "wor": 5161,
      "fir": 5162,
      "up": 5163,
      "200": 5164,
      "ew": 5165,
      "ia": 5166,
      "ould": 5167,
      "cor": 5168,
      "au": 5169,
      "ous": 5170,
      "own": 5171,
      "bo": 5172,
      "bl": 5173,
      "aw": 5174,
      "ach": 5175,
      "ction": 5176,
      "ev": 5177,
      "comp": 5178,
      "age": 5179,
      "ke": 5180,
      "att": 5181,
      "land": 5182,
      "first": 5183,
      "port": 5184,
      "ign": 5185,
      "ition": 5186,
      "form": 5187,
      "si": 5188,
      "their": 5189,
      "ical": 5190,
      "lo": 5191,
      "low": 5192,
      "ial": 5193,
      "ser": 5194,
      "tim": 5195,
      "ll": 5196,
      "po": 5197,
      "ater": 5198,
      "also": 5199,
      "He": 5200,
      "who": 5201,
      "br": 5202,
      "int": 5203,
      "part": 5204,
      "ure": 5205,
      "18": 5206,
      "cre": 5207,
      "has": 5208,
      "other": 5209,
      "ans": 5210,
      "have": 5211,
      "ome": 5212,
      "play": 5213,
      "pt": 5214,
      "ust": 5215,
      "ok": 5216,
      "off": 5217,
      "cont": 5218,
      ".@": 5219,
      "@.@": 5220,
      "two": 5221,
      "ile": 5222,
      "ree": 5223,
      "ence": 5224,
      "co": 5225,
      "pres": 5226,
      "uring": 5227,
      "me": 5228,
      "been": 5229,
      "pre": 5230,
      "ice": 5231,
      "we": 5232,
      "ance": 5233,
      "mer": 5234,
      "dis": 5235,
      ",@": 5236,
      "@,@": 5237,
      "201": 5238,
      "Th": 5239,
      "pos": 5240,
      "It": 5241,
      "ph": 5242,
      "this": 5243,
      "ory": 5244,
      "year": 5245,
      "after": 5246,
      "ult": 5247,
      "ell": 5248,
      "ren": 5249,
      "des": 5250,
      "ace": 5251,
      "ved": 5252,
      "sc": 5253,
      "fin": 5254,
      "ark": 5255,
      "An": 5256,
      "cent": 5257,
      "able": 5258,
      "ade": 5259,
      "mon": 5260,
      "they": 5261,
      "incl": 5262,
      "ue": 5263,
      "ite": 5264,
      "ang": 5265,
      "ail": 5266,
      "Un": 5267,
      "work": 5268,
      "ever": 5269,
      "ced": 5270,
      "ff": 5271,
      "air": 5272,
      "cr": 5273,
      "sion": 5274,
      "cord": 5275,
      "time": 5276,
      "sp": 5277,
      "inter": 5278,
      "urn": 5279,
      "ations": 5280,
      "would": 5281,
      "ship": 5282,
      "iz": 5283,
      "into": 5284,
      "him": 5285,
      "ick": 5286,
      "vel": 5287,
      "spe": 5288,
      "she": 5289,
      "no": 5290,
      "mber": 5291,
      "ates": 5292,
      "ict": 5293,
      "ie": 5294,
      "ased": 5295,
      "more": 5296,
      "ilm": 5297,
      "ited": 5298,
      "min": 5299,
      "ire": 5300,
      "old": 5301,
      "ty": 5302,
      "way": 5303,
      "Ar": 5304,
      "son": 5305,
      "amp": 5306,
      "ces": 5307,
      "most": 5308,
      "og": 5309,
      "new": 5310,
      "fore": 5311,
      "main": 5312,
      "Al": 5313,
      "bec": 5314,
      "ry": 5315,
      "any": 5316,
      "ten": 5317,
      "ret": 5318,
      "ase": 5319,
      "used": 5320,
      "ann": 5321,
      "ason": 5322,
      "fl": 5323,
      "ood": 5324,
      "includ": 5325,
      "cond": 5326,
      "cess": 5327,
      "cted": 5328,
      "ings": 5329,
      "ran": 5330,
      "ind": 5331,
      "ath": 5332,
      "vis": 5333,
      "les": 5334,
      "ors": 5335,
      "red": 5336,
      "day": 5337,
      "film": 5338,
      "when": 5339,
      "ted": 5340,
      "ton": 5341,
      "col": 5342,
      "rough": 5343,
      "ild": 5344,
      "comm": 5345,
      "ake": 5346,
      "ward": 5347,
      "Mar": 5348,
      "ob": 5349,
      "ck": 5350,
      "ican": 5351,
      "Au": 5352,
      "ens": 5353,
      "ts": 5354,
      "bu": 5355,
      "ra": 5356,
      "gan": 5357,
      "though": 5358,
      "sy": 5359,
      "reg": 5360,
      "ions": 5361,
      "Re": 5362,
      "een": 5363,
      "Wh": 5364,
      "De": 5365,
      "during": 5366,
      "than": 5367,
      "On": 5368,
      "so": 5369,
      "ose": 5370,
      "again": 5371,
      "gen": 5372,
      "game": 5373,
      "under": 5374,
      "ble": 5375,
      "ubl": 5376,
      "char": 5377,
      "nor": 5378,
      "produ": 5379,
      "199": 5380,
      "only": 5381,
      "ollow": 5382,
      "them": 5383,
      "about": 5384,
      "ide": 5385,
      "row": 5386,
      "can": 5387,
      "ents": 5388,
      "while": 5389,
      "New": 5390,
      "En": 5391,
      "ational": 5392,
      "some": 5393,
      "oy": 5394,
      "song": 5395,
      "rele": 5396,
      "later": 5397,
      "led": 5398,
      "ered": 5399,
      "outh": 5400,
      "ele": 5401,
      "tween": 5402,
      "between": 5403,
      "10": 5404,
      "sing": 5405,
      "ron": 5406,
      "ating": 5407,
      "coun": 5408,
      "three": 5409,
      "Af": 5410,
      "where": 5411,
      "num": 5412,
      "through": 5413,
      "kn": 5414,
      "aid": 5415,
      "As": 5416,
      "season": 5417,
      "ics": 5418,
      "ful": 5419,
      "view": 5420,
      "my": 5421,
      "lar": 5422,
      "cons": 5423,
      "Amer": 5424,
      "tain": 5425,
      "ern": 5426,
      "writ": 5427,
      "sub": 5428,
      "stru": 5429,
      "ied": 5430,
      "Le": 5431,
      "dr": 5432,
      "then": 5433,
      "rel": 5434,
      "ular": 5435,
      "iver": 5436,
      "000": 5437,
      "ters": 5438,
      "sel": 5439,
      "Jo": 5440,
      "high": 5441,
      "second": 5442,
      "med": 5443,
      "set": 5444,
      "made": 5445,
      "Com": 5446,
      "ef": 5447,
      "cur": 5448,
      "ames": 5449,
      "bum": 5450,
      "record": 5451,
      "four": 5452,
      "do": 5453,
      "go": 5454,
      "cap": 5455,
      "follow": 5456,
      "ock": 5457,
      "17": 5458,
      "ub": 5459,
      "spec": 5460,
      "call": 5461,
      "such": 5462,
      "car": 5463,
      "eng": 5464,
      "sur": 5465,
      "ished": 5466,
      "No": 5467,
      "atch": 5468,
      "back": 5469,
      "before": 5470,
      "there": 5471,
      "team": 5472,
      "well": 5473,
      "ma": 5474,
      "15": 5475,
      "iel": 5476,
      "mus": 5477,
      "cho": 5478,
      "ven": 5479,
      "inn": 5480,
      "years": 5481,
      "Sh": 5482,
      "appe": 5483,
      "Con": 5484,
      "add": 5485,
      "pol": 5486,
      "This": 5487,
      "Nor": 5488,
      "ros": 5489,
      "ident": 5490,
      "sup": 5491,
      "ific": 5492,
      "album": 5493,
      "publ": 5494,
      "reat": 5495,
      "ily": 5496,
      "owever": 5497,
      "je": 5498,
      "fer": 5499,
      "gu": 5500,
      "..": 5501,
      "tem": 5502,
      "ale": 5503,
      "ual": 5504,
      "ative": 5505,
      "unt": 5506,
      "many": 5507,
      "point": 5508,
      "being": 5509,
      "epis": 5510,
      "uary": 5511,
      "ond": 5512,
      "oup": 5513,
      "ek": 5514,
      "ode": 5515,
      "ince": 5516,
      "war": 5517,
      "velop": 5518,
      "At": 5519,
      "ins": 5520,
      "ury": 5521,
      "against": 5522,
      "number": 5523,
      "use": 5524,
      "ped": 5525,
      "Be": 5526,
      "side": 5527,
      "lead": 5528,
      "show": 5529,
      "ft": 5530,
      "charac": 5531,
      "After": 5532,
      "par": 5533,
      "16": 5534,
      "sever": 5535,
      "loc": 5536,
      "12": 5537,
      "mem": 5538,
      "ash": 5539,
      "long": 5540,
      "ause": 5541,
      "appear": 5542,
      "ious": 5543,
      "rece": 5544,
      "became": 5545,
      "Brit": 5546,
      "io": 5547,
      "including": 5548,
      "like": 5549,
      "cy": 5550,
      "hn": 5551,
      "United": 5552,
      "serv": 5553,
      "Se": 5554,
      "ese": 5555,
      "both": 5556,
      "cri": 5557,
      "ise": 5558,
      "series": 5559,
      "ost": 5560,
      "198": 5561,
      "found": 5562,
      "feat": 5563,
      "mi": 5564,
      "known": 5565,
      "line": 5566,
      "igin": 5567,
      "cover": 5568,
      "did": 5569,
      "194": 5570,
      "She": 5571,
      "rop": 5572,
      "ended": 5573,
      "eral": 5574,
      "az": 5575,
      "develop": 5576,
      "tri": 5577,
      "ley": 5578,
      "mill": 5579,
      "cer": 5580,
      "War": 5581,
      "contin": 5582,
      "ments": 5583,
      "ities": 5584,
      "ures": 5585,
      "30": 5586,
      "dire": 5587,
      "down": 5588,
      "Eng": 5589,
      "run": 5590,
      "suc": 5591,
      "pop": 5592,
      "head": 5593,
      "mar": 5594,
      "diff": 5595,
      "Wor": 5596,
      "For": 5597,
      "John": 5598,
      "road": 5599,
      "uch": 5600,
      "pass": 5601,
      "ird": 5602,
      "episode": 5603,
      "said": 5604,
      "leg": 5605,
      "por": 5606,
      "ouse": 5607,
      "west": 5608,
      "ress": 5609,
      "mis": 5610,
      "che": 5611,
      "could": 5612,
      "erson": 5613,
      "ah": 5614,
      "Ro": 5615,
      "several": 5616,
      "lin": 5617,
      "American": 5618,
      "peri": 5619,
      "orn": 5620,
      "ield": 5621,
      "vol": 5622,
      "vid": 5623,
      "14": 5624,
      "origin": 5625,
      "called": 5626,
      "197": 5627,
      "Gr": 5628,
      "II": 5629,
      "ised": 5630,
      "comple": 5631,
      "rest": 5632,
      "196": 5633,
      "Br": 5634,
      "ually": 5635,
      "sign": 5636,
      "stem": 5637,
      "music": 5638,
      "self": 5639,
      "bed": 5640,
      "cept": 5641,
      "remain": 5642,
      "return": 5643,
      "oper": 5644,
      "ste": 5645,
      "began": 5646,
      "Ger": 5647,
      "13": 5648,
      "design": 5649,
      "try": 5650,
      "ting": 5651,
      "ci": 5652,
      "ank": 5653,
      "ople": 5654,
      "men": 5655,
      "chool": 5656,
      "hel": 5657,
      "trans": 5658,
      "state": 5659,
      "dec": 5660,
      "aking": 5661,
      "early": 5662,
      "ball": 5663,
      "released": 5664,
      "near": 5665,
      "dist": 5666,
      "Tr": 5667,
      "hy": 5668,
      "Col": 5669,
      "US": 5670,
      "ived": 5671,
      "descri": 5672,
      "une": 5673,
      "ject": 5674,
      "until": 5675,
      "olog": 5676,
      "arr": 5677,
      "open": 5678,
      "success": 5679,
      "plac": 5680,
      "present": 5681,
      "sm": 5682,
      "hist": 5683,
      "fam": 5684,
      "ross": 5685,
      "arch": 5686,
      "gg": 5687,
      "May": 5688,
      "Cl": 5689,
      "ists": 5690,
      "band": 5691,
      "offic": 5692,
      "val": 5693,
      "crit": 5694,
      "less": 5695,
      "get": 5696,
      "overn": 5697,
      "50": 5698,
      "jor": 5699,
      "group": 5700,
      "gust": 5701,
      "may": 5702,
      "ism": 5703,
      "vent": 5704,
      "along": 5705,
      "ves": 5706,
      "nam": 5707,
      "bers": 5708,
      "ower": 5709,
      "mil": 5710,
      "tow": 5711,
      "million": 5712,
      "xt": 5713,
      "British": 5714,
      "bre": 5715,
      "cast": 5716,
      "order": 5717,
      "sim": 5718,
      "ving": 5719,
      "Sep": 5720,
      "enn": 5721,
      "met": 5722,
      "these": 5723,
      "ric": 5724,
      "come": 5725,
      "oci": 5726,
      "ather": 5727,
      "ized": 5728,
      "fect": 5729,
      "ord": 5730,
      "arm": 5731,
      "sk": 5732,
      "attack": 5733,
      "cut": 5734,
      "Sp": 5735,
      "cle": 5736,
      "Wil": 5737,
      "let": 5738,
      "tember": 5739,
      "national": 5740,
      "und": 5741,
      "stral": 5742,
      "September": 5743,
      "now": 5744,
      "World": 5745,
      "August": 5746,
      "ured": 5747,
      "Car": 5748,
      "stor": 5749,
      "Bl": 5750,
      "ib": 5751,
      "requ": 5752,
      "States": 5753,
      "Ju": 5754,
      "batt": 5755,
      "took": 5756,
      "continu": 5757,
      "large": 5758,
      "same": 5759,
      "people": 5760,
      "oot": 5761,
      "character": 5762,
      "grap": 5763,
      "var": 5764,
      "dep": 5765,
      "because": 5766,
      "vide": 5767,
      "11": 5768,
      "light": 5769,
      "position": 5770,
      "ca": 5771,
      "result": 5772,
      "ired": 5773,
      "around": 5774,
      "Ad": 5775,
      "Oc": 5776,
      "la": 5777,
      "Is": 5778,
      "start": 5779,
      "ctor": 5780,
      "class": 5781,
      "km": 5782,
      "aving": 5783,
      "king": 5784,
      "cour": 5785,
      "ivers": 5786,
      "Jan": 5787,
      "oth": 5788,
      "aim": 5789,
      "pon": 5790,
      "Austral": 5791,
      "mark": 5792,
      "formed": 5793,
      "vision": 5794,
      "support": 5795,
      "build": 5796,
      "ants": 5797,
      "week": 5798,
      "Pl": 5799,
      "tal": 5800,
      "following": 5801,
      "north": 5802,
      "rist": 5803,
      "life": 5804,
      "allow": 5805,
      "system": 5806,
      "six": 5807,
      "However": 5808,
      "ison": 5809,
      "aft": 5810,
      "track": 5811,
      "Pr": 5812,
      "Octo": 5813,
      "prom": 5814,
      "ork": 5815,
      "consid": 5816,
      "each": 5817,
      "ys": 5818,
      "received": 5819,
      "urch": 5820,
      "ime": 5821,
      "will": 5822,
      "ax": 5823,
      "October": 5824,
      "ained": 5825,
      "West": 5826,
      "ility": 5827,
      "ium": 5828,
      "place": 5829,
      "ling": 5830,
      "sol": 5831,
      "very": 5832,
      "govern": 5833,
      "ars": 5834,
      "thern": 5835,
      "liam": 5836,
      "five": 5837,
      "just": 5838,
      "stand": 5839,
      "area": 5840,
      "right": 5841,
      "wards": 5842,
      "century": 5843,
      "appro": 5844,
      "Sc": 5845,
      "They": 5846,
      "def": 5847,
      "By": 5848,
      "ina": 5849,
      "match": 5850,
      "partic": 5851,
      "ately": 5852,
      "ask": 5853,
      "ple": 5854,
      "North": 5855,
      "report": 5856,
      "city": 5857,
      "York": 5858,
      "world": 5859,
      "rote": 5860,
      "public": 5861,
      "book": 5862,
      "June": 5863,
      "top": 5864,
      "contro": 5865,
      "giv": 5866,
      "tle": 5867,
      "ger": 5868,
      "jo": 5869,
      "small": 5870,
      "major": 5871,
      "field": 5872,
      "cording": 5873,
      "King": 5874,
      "25": 5875,
      "ground": 5876,
      "July": 5877,
      "Can": 5878,
      "Man": 5879,
      "last": 5880,
      "Nove": 5881,
      "organ": 5882,
      "November": 5883,
      "played": 5884,
      "what": 5885,
      "ner": 5886,
      "atter": 5887,
      "turn": 5888,
      "town": 5889,
      "tit": 5890,
      "Fe": 5891,
      "person": 5892,
      "since": 5893,
      "ional": 5894,
      "lish": 5895,
      "single": 5896,
      "read": 5897,
      "gun": 5898,
      "Apr": 5899,
      "east": 5900,
      "March": 5901,
      "sequ": 5902,
      "April": 5903,
      "reach": 5904,
      "aged": 5905,
      "ude": 5906,
      "Mc": 5907,
      "ik": 5908,
      "Ac": 5909,
      "Co": 5910,
      "even": 5911,
      "care": 5912,
      "hal": 5913,
      "ural": 5914,
      "ster": 5915,
      "Eu": 5916,
      "Ge": 5917,
      "pri": 5918,
      "won": 5919,
      "name": 5920,
      "bro": 5921,
      "dom": 5922,
      "lit": 5923,
      "power": 5924,
      "idge": 5925,
      "differ": 5926,
      "0s": 5927,
      "Coun": 5928,
      "vious": 5929,
      "ague": 5930,
      "ica": 5931,
      "Indi": 5932,
      "ined": 5933,
      "test": 5934,
      "final": 5935,
      "ref": 5936,
      "left": 5937,
      "ru": 5938,
      "South": 5939,
      "ms": 5940,
      "ier": 5941,
      "Me": 5942,
      "due": 5943,
      "Ph": 5944,
      "udi": 5945,
      "gre": 5946,
      "south": 5947,
      "ages": 5948,
      "event": 5949,
      "version": 5950,
      "During": 5951,
      "list": 5952,
      "school": 5953,
      "Dece": 5954,
      "aff": 5955,
      "Ste": 5956,
      "avy": 5957,
      "December": 5958,
      "German": 5959,
      "Ed": 5960,
      "third": 5961,
      "water": 5962,
      "ilt": 5963,
      "ets": 5964,
      "incre": 5965,
      "month": 5966,
      "We": 5967,
      "ision": 5968,
      "moved": 5969,
      "much": 5970,
      "child": 5971,
      "ons": 5972,
      "expl": 5973,
      "another": 5974,
      "named": 5975,
      "January": 5976,
      "included": 5977,
      "195": 5978,
      "Or": 5979,
      "ians": 5980,
      "based": 5981,
      "issu": 5982,
      "All": 5983,
      "claim": 5984,
      "camp": 5985,
      "wrote": 5986,
      "ales": 5987,
      "193": 5988,
      "ships": 5989,
      "government": 5990,
      "ls": 5991,
      "24": 5992,
      "home": 5993,
      "Gu": 5994,
      "ane": 5995,
      "kill": 5996,
      "chan": 5997,
      "apan": 5998,
      "When": 5999,
      "Pe": 6000,
      "short": 6001,
      "story": 6002,
      "bert": 6003,
      "ially": 6004,
      "death": 6005,
      "app": 6006,
      "ute": 6007,
      "ically": 6008,
      "Pro": 6009,
      "ature": 6010,
      "ought": 6011,
      "Japan": 6012,
      "ody": 6013,
      "roy": 6014,
      "ext": 6015,
      "press": 6016,
      "using": 6017,
      "make": 6018,
      "tempt": 6019,
      "oss": 6020,
      "ital": 6021,
      "family": 6022,
      "review": 6023,
      "hand": 6024,
      "flu": 6025,
      "species": 6026,
      "house": 6027,
      "pect": 6028,
      "ution": 6029,
      "ney": 6030,
      "ement": 6031,
      "described": 6032,
      "ards": 6033,
      "rench": 6034,
      "fact": 6035,
      "dam": 6036,
      "previous": 6037,
      "...": 6038,
      "dest": 6039,
      "rown": 6040,
      "Bo": 6041,
      "Euro": 6042,
      "ene": 6043,
      "late": 6044,
      "forman": 6045,
      "beli": 6046,
      "thing": 6047,
      "real": 6048,
      "urther": 6049,
      "ler": 6050,
      "built": 6051,
      "cas": 6052,
      "gener": 6053,
      "ilar": 6054,
      "ness": 6055,
      "ified": 6056,
      "former": 6057,
      "mp": 6058,
      "best": 6059,
      "tak": 6060,
      "oute": 6061,
      "attempt": 6062,
      "placed": 6063,
      "games": 6064,
      "colle": 6065,
      "Mon": 6066,
      "tract": 6067,
      "polit": 6068,
      "ared": 6069,
      "held": 6070,
      "command": 6071,
      "Par": 6072,
      "ats": 6073,
      "put": 6074,
      "ety": 6075,
      "stud": 6076,
      "stit": 6077,
      "ford": 6078,
      "vo": 6079,
      "still": 6080,
      "His": 6081,
      "original": 6082,
      "gram": 6083,
      "those": 6084,
      "lim": 6085,
      "den": 6086,
      "constru": 6087,
      "addition": 6088,
      "augh": 6089,
      "Febr": 6090,
      "February": 6091,
      "gy": 6092,
      "fel": 6093,
      "next": 6094,
      "ently": 6095,
      "effect": 6096,
      "Christ": 6097,
      "ator": 6098,
      "22": 6099,
      "mid": 6100,
      "fall": 6101,
      "thor": 6102,
      "There": 6103,
      "fri": 6104,
      "performan": 6105,
      "100": 6106,
      "members": 6107,
      "ham": 6108,
      "sent": 6109,
      "rican": 6110,
      "ences": 6111,
      "ctions": 6112,
      "van": 6113,
      "Gen": 6114,
      "Li": 6115,
      "inc": 6116,
      "National": 6117,
      "ush": 6118,
      "mit": 6119,
      "Europe": 6120,
      "21": 6121,
      "bur": 6122,
      "iversity": 6123,
      "days": 6124,
      "period": 6125,
      "within": 6126,
      "ched": 6127,
      "ines": 6128,
      "French": 6129,
      "role": 6130,
      "na": 6131,
      "release": 6132,
      "ze": 6133,
      "init": 6134,
      "although": 6135,
      "move": 6136,
      "wind": 6137,
      "video": 6138,
      "hip": 6139,
      "say": 6140,
      "rank": 6141,
      "half": 6142,
      "2010": 6143,
      "23": 6144,
      "estab": 6145,
      "Her": 6146,
      "came": 6147,
      "Ser": 6148,
      "arri": 6149,
      "ps": 6150,
      "ink": 6151,
      "wom": 6152,
      "And": 6153,
      "William": 6154,
      "ropical": 6155,
      "continued": 6156,
      "law": 6157,
      "ali": 6158,
      "27": 6159,
      "craft": 6160,
      "aining": 6161,
      "ning": 6162,
      "ains": 6163,
      "ris": 6164,
      "hum": 6165,
      "uss": 6166,
      "round": 6167,
      "ones": 6168,
      "ulation": 6169,
      "ribut": 6170,
      "win": 6171,
      "sou": 6172,
      "posed": 6173,
      "however": 6174,
      "ending": 6175,
      "sen": 6176,
      "itary": 6177,
      "2008": 6178,
      "28": 6179,
      "fac": 6180,
      "inning": 6181,
      "ral": 6182,
      "2009": 6183,
      "Geor": 6184,
      "often": 6185,
      "uc": 6186,
      "you": 6187,
      "ried": 6188,
      "few": 6189,
      "rad": 6190,
      "ister": 6191,
      "imes": 6192,
      "equ": 6193,
      "mag": 6194,
      "Bar": 6195,
      "stri": 6196,
      "ampion": 6197,
      "take": 6198,
      "ix": 6199,
      "wood": 6200,
      "friend": 6201,
      "Des": 6202,
      "local": 6203,
      "Ear": 6204,
      "player": 6205,
      "2011": 6206,
      "Air": 6207,
      "similar": 6208,
      "26": 6209,
      "40": 6210,
      "among": 6211,
      "beg": 6212,
      "Inter": 6213,
      "production": 6214,
      "Mich": 6215,
      "ior": 6216,
      "ony": 6217,
      "force": 6218,
      "pite": 6219,
      "went": 6220,
      "different": 6221,
      "atic": 6222,
      "ove": 6223,
      "Char": 6224,
      "chang": 6225,
      "ery": 6226,
      "mission": 6227,
      "ides": 6228,
      "possi": 6229,
      "England": 6230,
      "storm": 6231,
      "One": 6232,
      "strong": 6233,
      "Mus": 6234,
      "further": 6235,
      "night": 6236,
      "Har": 6237,
      "post": 6238,
      "sty": 6239,
      "considered": 6240,
      "company": 6241,
      "Dav": 6242,
      "level": 6243,
      "served": 6244,
      "fire": 6245,
      "ices": 6246,
      "aver": 6247,
      "2007": 6248,
      "ided": 6249,
      "career": 6250,
      "uck": 6251,
      "ively": 6252,
      "ged": 6253,
      "provid": 6254,
      "City": 6255,
      "East": 6256,
      "having": 6257,
      "fort": 6258,
      "Park": 6259,
      "action": 6260,
      "ient": 6261,
      "commun": 6262,
      "exp": 6263,
      "trad": 6264,
      "fun": 6265,
      "tele": 6266,
      "English": 6267,
      "que": 6268,
      "ae": 6269,
      "fron": 6270,
      "enter": 6271,
      "ai": 6272,
      "ops": 6273,
      "Fr": 6274,
      "club": 6275,
      "every": 6276,
      "ives": 6277,
      "hold": 6278,
      "without": 6279,
      "history": 6280,
      "refer": 6281,
      "Although": 6282,
      "lands": 6283,
      "studi": 6284,
      "wide": 6285,
      "graph": 6286,
      "written": 6287,
      "Scot": 6288,
      "2012": 6289,
      "stead": 6290,
      "become": 6291,
      "board": 6292,
      "29": 6293,
      "reet": 6294,
      "respon": 6295,
      "Lond": 6296,
      "influ": 6297,
      "Ang": 6298,
      "London": 6299,
      "foot": 6300,
      "sound": 6301,
      "So": 6302,
      "Ex": 6303,
      "scor": 6304,
      "With": 6305,
      "ggest": 6306,
      "Mo": 6307,
      "iss": 6308,
      "River": 6309,
      "Batt": 6310,
      "invol": 6311,
      "suggest": 6312,
      "ington": 6313,
      "190": 6314,
      "bor": 6315,
      "tro": 6316,
      "given": 6317,
      "bus": 6318,
      "prof": 6319,
      "Ne": 6320,
      "announ": 6321,
      "divid": 6322,
      "oung": 6323,
      "mand": 6324,
      "key": 6325,
      "Te": 6326,
      "ds": 6327,
      "want": 6328,
      "Sy": 6329,
      "To": 6330,
      "cial": 6331,
      "cop": 6332,
      "comb": 6333,
      "ug": 6334,
      "building": 6335,
      "change": 6336,
      "High": 6337,
      "Canad": 6338,
      "imp": 6339,
      "iment": 6340,
      "father": 6341,
      "gave": 6342,
      "Fl": 6343,
      "successful": 6344,
      "common": 6345,
      "published": 6346,
      "close": 6347,
      "Pol": 6348,
      "University": 6349,
      "import": 6350,
      "stated": 6351,
      "seven": 6352,
      "sure": 6353,
      "good": 6354,
      "never": 6355,
      "While": 6356,
      "ailed": 6357,
      "returned": 6358,
      "fr": 6359,
      "anim": 6360,
      "beh": 6361,
      "omin": 6362,
      "produced": 6363,
      "total": 6364,
      "author": 6365,
      "face": 6366,
      "prote": 6367,
      "country": 6368,
      "del": 6369,
      "bar": 6370,
      "gn": 6371,
      "eved": 6372,
      "away": 6373,
      "see": 6374,
      "hour": 6375,
      "aren": 6376,
      "quad": 6377,
      "Cor": 6378,
      "sit": 6379,
      "popular": 6380,
      "tour": 6381,
      "omet": 6382,
      "ably": 6383,
      "aur": 6384,
      "reported": 6385,
      "Div": 6386,
      "ung": 6387,
      "dri": 6388,
      "lost": 6389,
      "2006": 6390,
      "program": 6391,
      "capt": 6392,
      "compos": 6393,
      "great": 6394,
      "aign": 6395,
      "ways": 6396,
      "chn": 6397,
      "vest": 6398,
      "particular": 6399,
      "draw": 6400,
      "ama": 6401,
      "making": 6402,
      "Dr": 6403,
      "rent": 6404,
      "ks": 6405,
      "vers": 6406,
      "include": 6407,
      "ened": 6408,
      "how": 6409,
      "According": 6410,
      "decl": 6411,
      "soci": 6412,
      "interest": 6413,
      "struct": 6414,
      "ology": 6415,
      "recorded": 6416,
      "indu": 6417,
      "covered": 6418,
      "ox": 6419,
      "fle": 6420,
      "forces": 6421,
      "need": 6422,
      "vict": 6423,
      "direct": 6424,
      "body": 6425,
      "urrican": 6426,
      "itions": 6427,
      "Am": 6428,
      "site": 6429,
      "Phil": 6430,
      "should": 6431,
      "plan": 6432,
      "voc": 6433,
      "ploy": 6434,
      "quar": 6435,
      "service": 6436,
      "ument": 6437,
      "suff": 6438,
      "moder": 6439,
      "performance": 6440,
      "died": 6441,
      "teen": 6442,
      "times": 6443,
      "grad": 6444,
      "These": 6445,
      "net": 6446,
      "ana": 6447,
      "coming": 6448,
      "fan": 6449,
      "rock": 6450,
      "pen": 6451,
      "ned": 6452,
      "Roy": 6453,
      "aircraft": 6454,
      "sum": 6455,
      "himself": 6456,
      "2013": 6457,
      "tell": 6458,
      "intro": 6459,
      "military": 6460,
      "flo": 6461,
      "pur": 6462,
      "iness": 6463,
      "Jack": 6464,
      "depend": 6465,
      "Australia": 6466,
      "room": 6467,
      "battle": 6468,
      "bas": 6469,
      "agre": 6470,
      "aul": 6471,
      "Pres": 6472,
      "songs": 6473,
      "aster": 6474,
      "elect": 6475,
      "Min": 6476,
      "member": 6477,
      "Rep": 6478,
      "cing": 6479,
      "itch": 6480,
      "gl": 6481,
      "critic": 6482,
      "General": 6483,
      "development": 6484,
      "BC": 6485,
      "State": 6486,
      "xim": 6487,
      "search": 6488,
      "front": 6489,
      "alth": 6490,
      "represent": 6491,
      "ael": 6492,
      "sw": 6493,
      "189": 6494,
      "ges": 6495,
      "itive": 6496,
      "look": 6497,
      "60": 6498,
      "acy": 6499,
      "akes": 6500,
      "sl": 6501,
      "histor": 6502,
      "James": 6503,
      "developed": 6504,
      "istr": 6505,
      "vir": 6506,
      "medi": 6507,
      "Rom": 6508,
      "control": 6509,
      "introdu": 6510,
      "destroy": 6511,
      "star": 6512,
      "nal": 6513,
      "children": 6514,
      "remained": 6515,
      "ption": 6516,
      "Gre": 6517,
      "range": 6518,
      "Su": 6519,
      "fav": 6520,
      "characters": 6521,
      "Army": 6522,
      "chart": 6523,
      "Sm": 6524,
      "title": 6525,
      "ored": 6526,
      "rew": 6527,
      "clear": 6528,
      "months": 6529,
      "mm": 6530,
      "ey": 6531,
      "ising": 6532,
      "ues": 6533,
      "ither": 6534,
      "rap": 6535,
      "ille": 6536,
      "ense": 6537,
      "campaign": 6538,
      "occur": 6539,
      "ability": 6540,
      "League": 6541,
      "cult": 6542,
      "urricane": 6543,
      "cir": 6544,
      "taken": 6545,
      "omb": 6546,
      "eight": 6547,
      "gether": 6548,
      "compet": 6549,
      "felt": 6550,
      "tropical": 6551,
      "ots": 6552,
      "signific": 6553,
      "writing": 6554,
      "across": 6555,
      "seen": 6556,
      "project": 6557,
      "tar": 6558,
      "Cap": 6559,
      "ering": 6560,
      "bridge": 6561,
      "station": 6562,
      "gest": 6563,
      "too": 6564,
      "pra": 6565,
      "created": 6566,
      "Tw": 6567,
      "America": 6568,
      "appeared": 6569,
      "announced": 6570,
      "noted": 6571,
      "Division": 6572,
      "alter": 6573,
      "Sw": 6574,
      "George": 6575,
      "reached": 6576,
      "Per": 6577,
      "appoint": 6578,
      "Hen": 6579,
      "cil": 6580,
      "hor": 6581,
      "experi": 6582,
      "activ": 6583,
      "gin": 6584,
      "County": 6585,
      "uses": 6586,
      "works": 6587,
      "Ma": 6588,
      "areas": 6589,
      "ov": 6590,
      "television": 6591,
      "fight": 6592,
      "2005": 6593,
      "Road": 6594,
      "Japanese": 6595,
      "saw": 6596,
      "lect": 6597,
      "prim": 6598,
      "cost": 6599,
      "performed": 6600,
      "ream": 6601,
      "various": 6602,
      "political": 6603,
      "break": 6604,
      "Street": 6605,
      "complete": 6606,
      "followed": 6607,
      "full": 6608,
      "iting": 6609,
      "ality": 6610,
      "har": 6611,
      "race": 6612,
      "players": 6613,
      "ago": 6614,
      "trave": 6615,
      "style": 6616,
      "2014": 6617,
      "mb": 6618,
      "inv": 6619,
      "mot": 6620,
      "arded": 6621,
      "abor": 6622,
      "black": 6623,
      "process": 6624,
      "mph": 6625,
      "mix": 6626,
      "non": 6627,
      "Mad": 6628,
      "antic": 6629,
      "wall": 6630,
      "oto": 6631,
      "points": 6632,
      "killed": 6633,
      "ief": 6634,
      "ization": 6635,
      "help": 6636,
      "hit": 6637,
      "bet": 6638,
      "bel": 6639,
      "crew": 6640,
      "lines": 6641,
      "live": 6642,
      "lished": 6643,
      "sess": 6644,
      "throughout": 6645,
      "sex": 6646,
      "techn": 6647,
      "stat": 6648,
      "together": 6649,
      "formation": 6650,
      "cru": 6651,
      "debut": 6652,
      "little": 6653,
      "El": 6654,
      "fem": 6655,
      "established": 6656,
      "tra": 6657,
      "significant": 6658,
      "meet": 6659,
      "broad": 6660,
      "Thom": 6661,
      "ull": 6662,
      "icult": 6663,
      "coast": 6664,
      "thought": 6665,
      "construction": 6666,
      "aval": 6667,
      "find": 6668,
      "Reg": 6669,
      "Qu": 6670,
      "pair": 6671,
      "miles": 6672,
      "earli": 6673,
      "does": 6674,
      "enced": 6675,
      "impro": 6676,
      "David": 6677,
      "born": 6678,
      "odes": 6679,
      "Michael": 6680,
      "got": 6681,
      "pain": 6682,
      "entire": 6683,
      "ission": 6684,
      "Australian": 6685,
      "rain": 6686,
      "stage": 6687,
      "ators": 6688,
      "young": 6689,
      "Rich": 6690,
      "San": 6691,
      "relation": 6692,
      "Med": 6693,
      "special": 6694,
      "women": 6695,
      "conom": 6696,
      "route": 6697,
      "decided": 6698,
      "conne": 6699,
      "Bill": 6700,
      "acc": 6701,
      "Part": 6702,
      "You": 6703,
      "case": 6704,
      "ible": 6705,
      "ances": 6706,
      "80": 6707,
      "ivil": 6708,
      "caused": 6709,
      "started": 6710,
      "general": 6711,
      "sell": 6712,
      "playing": 6713,
      "ho": 6714,
      "features": 6715,
      "white": 6716,
      "grow": 6717,
      "House": 6718,
      "Sch": 6719,
      "aves": 6720,
      "once": 6721,
      "eventually": 6722,
      "tee": 6723,
      "Fin": 6724,
      "ample": 6725,
      "isted": 6726,
      "manag": 6727,
      "pat": 6728,
      "host": 6729,
      "Lu": 6730,
      "sold": 6731,
      "stant": 6732,
      "feet": 6733,
      "ald": 6734,
      "Royal": 6735,
      "added": 6736,
      "opened": 6737,
      "modern": 6738,
      "located": 6739,
      "termin": 6740,
      "ring": 6741,
      "Hist": 6742,
      "itar": 6743,
      "idence": 6744,
      "My": 6745,
      "base": 6746,
      "ife": 6747,
      "inj": 6748,
      "quadron": 6749,
      "ampionship": 6750,
      "vari": 6751,
      "Some": 6752,
      "Po": 6753,
      "adv": 6754,
      "disc": 6755,
      "Ital": 6756,
      "instead": 6757,
      "ensive": 6758,
      "Don": 6759,
      "clos": 6760,
      "Mal": 6761,
      "Black": 6762,
      "peak": 6763,
      "hon": 6764,
      "Music": 6765,
      "cret": 6766,
      "important": 6767,
      "current": 6768,
      "section": 6769,
      "theast": 6770,
      "utes": 6771,
      "Ber": 6772,
      "Comp": 6773,
      "ata": 6774,
      "Bel": 6775,
      "cross": 6776,
      "ocial": 6777,
      "moun": 6778,
      "completed": 6779,
      "urb": 6780,
      "possible": 6781,
      "far": 6782,
      "ends": 6783,
      "ination": 6784,
      "worked": 6785,
      "oney": 6786,
      "els": 6787,
      "yn": 6788,
      "cogn": 6789,
      "ying": 6790,
      "others": 6791,
      "cause": 6792,
      "don": 6793,
      "free": 6794,
      "era": 6795,
      "population": 6796,
      "audi": 6797,
      "2004": 6798,
      "tre": 6799,
      "pred": 6800,
      "mater": 6801,
      "Hol": 6802,
      "fig": 6803,
      "pie": 6804,
      "lled": 6805,
      "leading": 6806,
      "typ": 6807,
      "quest": 6808,
      "31": 6809,
      "oted": 6810,
      "Ab": 6811,
      "loss": 6812,
      "rather": 6813,
      "church": 6814,
      "guns": 6815,
      "behind": 6816,
      "scri": 6817,
      "dle": 6818,
      "ches": 6819,
      "Robert": 6820,
      "upon": 6821,
      "ceed": 6822,
      "pract": 6823,
      "70": 6824,
      "forced": 6825,
      "lie": 6826,
      "comment": 6827,
      "lack": 6828,
      "mother": 6829,
      "invest": 6830,
      "alk": 6831,
      "Vi": 6832,
      "France": 6833,
      "amb": 6834,
      "fif": 6835,
      "Cent": 6836,
      "2015": 6837,
      "ino": 6838,
      "know": 6839,
      "ays": 6840,
      "vill": 6841,
      "heavy": 6842,
      "NA": 6843,
      "ming": 6844,
      "Act": 6845,
      "ecut": 6846,
      "party": 6847,
      "School": 6848,
      "Cr": 6849,
      "respect": 6850,
      "novel": 6851,
      "subsequ": 6852,
      "Russ": 6853,
      "proble": 6854,
      "35": 6855,
      "reve": 6856,
      "accept": 6857,
      "difficult": 6858,
      "Wash": 6859,
      "human": 6860,
      "working": 6861,
      "hard": 6862,
      "separ": 6863,
      "associ": 6864,
      "joined": 6865,
      "weeks": 6866,
      "term": 6867,
      "Ham": 6868,
      "Henry": 6869,
      "coll": 6870,
      "scene": 6871,
      "originally": 6872,
      "avail": 6873,
      "Ale": 6874,
      "Em": 6875,
      "asing": 6876,
      "ories": 6877,
      "angu": 6878,
      "pression": 6879,
      "scored": 6880,
      "almost": 6881,
      "inst": 6882,
      "gar": 6883,
      "188": 6884,
      "damage": 6885,
      "ties": 6886,
      "spir": 6887,
      "Battle": 6888,
      "mass": 6889,
      "allowed": 6890,
      "fourth": 6891,
      "ival": 6892,
      "Best": 6893,
      "Spe": 6894,
      "ament": 6895,
      "ids": 6896,
      "Red": 6897,
      "igned": 6898,
      "approach": 6899,
      "ready": 6900,
      "provided": 6901,
      "Vir": 6902,
      "engine": 6903,
      "Fir": 6904,
      "goal": 6905,
      "drop": 6906,
      "lower": 6907,
      "ope": 6908,
      "Mil": 6909,
      "Port": 6910,
      "claimed": 6911,
      "super": 6912,
      "TV": 6913,
      "cup": 6914,
      "Mor": 6915,
      "wanted": 6916,
      "Dan": 6917,
      "regular": 6918,
      "Paul": 6919,
      "employ": 6920,
      "500": 6921,
      "cell": 6922,
      "Mac": 6923,
      "brought": 6924,
      "Que": 6925,
      "nat": 6926,
      "tradition": 6927,
      "ula": 6928,
      "Cour": 6929,
      "compan": 6930,
      "Fran": 6931,
      "individ": 6932,
      "bal": 6933,
      "aps": 6934,
      "featured": 6935,
      "President": 6936,
      "least": 6937,
      "Gl": 6938,
      "wife": 6939,
      "laun": 6940,
      "hest": 6941,
      "econom": 6942,
      "average": 6943,
      "soon": 6944,
      "passed": 6945,
      "business": 6946,
      "cred": 6947,
      "towards": 6948,
      "region": 6949,
      "runs": 6950,
      "tempor": 6951,
      "reek": 6952,
      "aut": 6953,
      "Washington": 6954,
      "recogn": 6955,
      "Play": 6956,
      "court": 6957,
      "critics": 6958,
      "azine": 6959,
      "western": 6960,
      "cts": 6961,
      "redu": 6962,
      "186": 6963,
      "quick": 6964,
      "counter": 6965,
      "estim": 6966,
      "office": 6967,
      "either": 6968,
      "contract": 6969,
      "profess": 6970,
      "Res": 6971,
      "sour": 6972,
      "forms": 6973,
      "plann": 6974,
      "defe": 6975,
      "emy": 6976,
      "rail": 6977,
      "uel": 6978,
      "leng": 6979,
      "example": 6980,
      "Angel": 6981,
      "nomin": 6982,
      "nia": 6983,
      "Other": 6984,
      "icated": 6985,
      "foc": 6986,
      "mult": 6987,
      "troops": 6988,
      "dou": 6989,
      "rid": 6990,
      "Je": 6991,
      "finished": 6992,
      "ades": 6993,
      "ico": 6994,
      "army": 6995,
      "scre": 6996,
      "hom": 6997,
      "asy": 6998,
      "uk": 6999,
      "2003": 7000,
      "Despite": 7001,
      "rul": 7002,
      "concl": 7003,
      "mun": 7004,
      "mal": 7005,
      "shot": 7006,
      "Follow": 7007,
      "Game": 7008,
      "circ": 7009,
      "unk": 7010,
      "generally": 7011,
      "ials": 7012,
      "ills": 7013,
      "proper": 7014,
      "condu": 7015,
      "whe": 7016,
      "fre": 7017,
      "ha": 7018,
      "det": 7019,
      "aper": 7020,
      "anti": 7021,
      "bes": 7022,
      "ply": 7023,
      "osp": 7024,
      "cycl": 7025,
      "sea": 7026,
      "Colle": 7027,
      "fed": 7028,
      "compl": 7029,
      "length": 7030,
      "events": 7031,
      "cert": 7032,
      "believed": 7033,
      "Cup": 7034,
      "keep": 7035,
      "Star": 7036,
      "First": 7037,
      "particip": 7038,
      "aled": 7039,
      "Following": 7040,
      "parts": 7041,
      "Mary": 7042,
      "tic": 7043,
      "fund": 7044,
      "scen": 7045,
      "ping": 7046,
      "ius": 7047,
      "ention": 7048,
      "victory": 7049,
      "replaced": 7050,
      "cially": 7051,
      "bound": 7052,
      "nine": 7053,
      "45": 7054,
      "tor": 7055,
      "designed": 7056,
      "iction": 7057,
      "available": 7058,
      "island": 7059,
      "Dep": 7060,
      "75": 7061,
      "ological": 7062,
      "official": 7063,
      "itor": 7064,
      "Lou": 7065,
      "sele": 7066,
      "hours": 7067,
      "evol": 7068,
      "European": 7069,
      "conc": 7070,
      "involved": 7071,
      "president": 7072,
      "Two": 7073,
      "hab": 7074,
      "ta": 7075,
      "opening": 7076,
      "Mer": 7077,
      "prison": 7078,
      "Sun": 7079,
      "stop": 7080,
      "ential": 7081,
      "ports": 7082,
      "bri": 7083,
      "asked": 7084,
      "hous": 7085,
      "tel": 7086,
      "certain": 7087,
      "istic": 7088,
      "turned": 7089,
      "stone": 7090,
      "execut": 7091,
      "comes": 7092,
      "cal": 7093,
      "erous": 7094,
      "exist": 7095,
      "director": 7096,
      "Roman": 7097,
      "ville": 7098,
      "saying": 7099,
      "threat": 7100,
      "2000": 7101,
      "nd": 7102,
      "commit": 7103,
      "appearance": 7104,
      "park": 7105,
      "love": 7106,
      "ighest": 7107,
      "watch": 7108,
      "Mid": 7109,
      "minutes": 7110,
      "writer": 7111,
      "largest": 7112,
      "ount": 7113,
      "highway": 7114,
      "sil": 7115,
      "southern": 7116,
      "Route": 7117,
      "Scott": 7118,
      "taking": 7119,
      "mir": 7120,
      "commer": 7121,
      "ishing": 7122,
      "ize": 7123,
      "ublic": 7124,
      "going": 7125,
      "survi": 7126,
      "highest": 7127,
      "From": 7128,
      "2001": 7129,
      "earlier": 7130,
      "Atl": 7131,
      "Sing": 7132,
      "initially": 7133,
      "Do": 7134,
      "percent": 7135,
      "vice": 7136,
      "particularly": 7137,
      "training": 7138,
      "White": 7139,
      "ership": 7140,
      "Val": 7141,
      "bit": 7142,
      "lear": 7143,
      "Mag": 7144,
      "Mart": 7145,
      "lying": 7146,
      "90": 7147,
      "graphy": 7148,
      "educ": 7149,
      "box": 7150,
      "must": 7151,
      "Church": 7152,
      "assist": 7153,
      "ordered": 7154,
      "pot": 7155,
      "issue": 7156,
      "Charles": 7157,
      "Kingdom": 7158,
      "Navy": 7159,
      "signed": 7160,
      "hib": 7161,
      "thus": 7162,
      "ateg": 7163,
      "za": 7164,
      "pond": 7165,
      "pers": 7166,
      "Off": 7167,
      "Hall": 7168,
      "Thomas": 7169,
      "weak": 7170,
      "social": 7171,
      "central": 7172,
      "tries": 7173,
      "uture": 7174,
      "aj": 7175,
      "ency": 7176,
      "ape": 7177,
      "speed": 7178,
      "maintain": 7179,
      "studio": 7180,
      "praised": 7181,
      "bow": 7182,
      "pected": 7183,
      "Dis": 7184,
      "alifor": 7185,
      "International": 7186,
      "bill": 7187,
      "ification": 7188,
      "Smith": 7189,
      "But": 7190,
      "date": 7191,
      "langu": 7192,
      "gress": 7193,
      "ception": 7194,
      "reason": 7195,
      "Virgin": 7196,
      "Cam": 7197,
      "increased": 7198,
      "deal": 7199,
      "AA": 7200,
      "northern": 7201,
      "hurricane": 7202,
      "past": 7203,
      "units": 7204,
      "research": 7205,
      "Pal": 7206,
      "2002": 7207,
      "vin": 7208,
      "relig": 7209,
      "Bay": 7210,
      "rac": 7211,
      "type": 7212,
      "stry": 7213,
      "depart": 7214,
      "via": 7215,
      "meas": 7216,
      "Canada": 7217,
      "pay": 7218,
      "agon": 7219,
      "deli": 7220,
      "Bur": 7221,
      "Califor": 7222,
      "commission": 7223,
      "rian": 7224,
      "Du": 7225,
      "Pri": 7226,
      "Sam": 7227,
      "hol": 7228,
      "Rock": 7229,
      "Bro": 7230,
      "mean": 7231,
      "Ho": 7232,
      "immedi": 7233,
      "omer": 7234,
      "ayed": 7235,
      "daugh": 7236,
      "acqu": 7237,
      "ilities": 7238,
      "relationship": 7239,
      "imin": 7240,
      "fantry": 7241,
      "Peter": 7242,
      "Richard": 7243,
      "pressed": 7244,
      "Sen": 7245,
      "Mi": 7246,
      "bomb": 7247,
      "independ": 7248,
      "Alex": 7249,
      "Ben": 7250,
      "usually": 7251,
      "told": 7252,
      "better": 7253,
      "Indian": 7254,
      "California": 7255,
      "Sal": 7256,
      "nel": 7257,
      "icket": 7258,
      "sat": 7259,
      "Sk": 7260,
      "enough": 7261,
      "states": 7262,
      "winds": 7263,
      "Union": 7264,
      "aring": 7265,
      "sed": 7266,
      "rup": 7267,
      "positive": 7268,
      "jour": 7269,
      "God": 7270,
      "Court": 7271,
      "Brown": 7272,
      "sal": 7273,
      "Island": 7274,
      "concern": 7275,
      "ston": 7276,
      "spent": 7277,
      "phys": 7278,
      "ume": 7279,
      "according": 7280,
      "ference": 7281,
      "appointed": 7282,
      "Tom": 7283,
      "above": 7284,
      "arily": 7285,
      "films": 7286,
      "feel": 7287,
      "Ap": 7288,
      "tion": 7289,
      "outside": 7290,
      "Great": 7291,
      "Cong": 7292,
      "icle": 7293,
      "accoun": 7294,
      "football": 7295,
      "bird": 7296,
      "anks": 7297,
      "Str": 7298,
      "Award": 7299,
      "ener": 7300,
      "quare": 7301,
      "lay": 7302,
      "previously": 7303,
      "recording": 7304,
      "active": 7305,
      "responsi": 7306,
      "standing": 7307,
      "Associ": 7308,
      "mur": 7309,
      "contribut": 7310,
      "load": 7311,
      "usion": 7312,
      "defin": 7313,
      "access": 7314,
      "failed": 7315,
      "sey": 7316,
      "Company": 7317,
      "required": 7318,
      "elements": 7319,
      "reng": 7320,
      "ems": 7321,
      "occup": 7322,
      "187": 7323,
      "NY": 7324,
      "ken": 7325,
      "Ter": 7326,
      "treat": 7327,
      "overnor": 7328,
      "atin": 7329,
      "gir": 7330,
      "India": 7331,
      "Vict": 7332,
      "Germany": 7333,
      "reviews": 7334,
      "viol": 7335,
      "ga": 7336,
      "directed": 7337,
      "Sou": 7338,
      "Mark": 7339,
      "ida": 7340,
      "interview": 7341,
      "alion": 7342,
      "word": 7343,
      "ique": 7344,
      "ometimes": 7345,
      "III": 7346,
      "Christian": 7347,
      "itself": 7348,
      "give": 7349,
      "vert": 7350,
      "groups": 7351,
      "reme": 7352,
      "aters": 7353,
      "inner": 7354,
      "score": 7355,
      "despite": 7356,
      "respond": 7357,
      "bour": 7358,
      "thod": 7359,
      "Frank": 7360,
      "Times": 7361,
      "Sim": 7362,
      "prob": 7363,
      "UK": 7364,
      "La": 7365,
      "ns": 7366,
      "onto": 7367,
      "Ke": 7368,
      "perform": 7369,
      "Cast": 7370,
      "idea": 7371,
      "space": 7372,
      "beginning": 7373,
      "bi": 7374,
      "introduced": 7375,
      "ministr": 7376,
      "College": 7377,
      "script": 7378,
      "soldi": 7379,
      "happ": 7380,
      "frequ": 7381,
      "streng": 7382,
      "ept": 7383,
      "flight": 7384,
      "whose": 7385,
      "ication": 7386,
      "sus": 7387,
      "priv": 7388,
      "Jer": 7389,
      "igan": 7390,
      "block": 7391,
      "transfer": 7392,
      "anal": 7393,
      "ening": 7394,
      "Tri": 7395,
      "Gold": 7396,
      "Western": 7397,
      "league": 7398,
      "tom": 7399,
      "Mex": 7400,
      "edy": 7401,
      "cul": 7402,
      "ara": 7403,
      "ases": 7404,
      "prevent": 7405,
      "brother": 7406,
      "ault": 7407,
      "changes": 7408,
      "recent": 7409,
      "Sovi": 7410,
      "pil": 7411,
      "gold": 7412,
      "Hill": 7413,
      "conf": 7414,
      "sch": 7415,
      "election": 7416,
      "Pre": 7417,
      "defeated": 7418,
      "Bu": 7419,
      "additional": 7420,
      "Grand": 7421,
      "jud": 7422,
      "appl": 7423,
      "future": 7424,
      "berg": 7425,
      "whom": 7426,
      "poor": 7427,
      "international": 7428,
      "photo": 7429,
      "Met": 7430,
      "Span": 7431,
      "Awards": 7432,
      "native": 7433,
      "exten": 7434,
      "structure": 7435,
      "corpor": 7436,
      "evidence": 7437,
      "changed": 7438,
      "sem": 7439,
      "argu": 7440,
      "33": 7441,
      "quickly": 7442,
      "center": 7443,
      "market": 7444,
      "specific": 7445,
      "Force": 7446,
      "radio": 7447,
      "already": 7448,
      "ben": 7449,
      "umb": 7450,
      "That": 7451,
      "Day": 7452,
      "situ": 7453,
      "atory": 7454,
      "material": 7455,
      "aint": 7456,
      "river": 7457,
      "Most": 7458,
      "coach": 7459,
      "emp": 7460,
      "pet": 7461,
      "dies": 7462,
      "ctive": 7463,
      "agreed": 7464,
      "arrived": 7465,
      "civil": 7466,
      "itz": 7467,
      "lies": 7468,
      "study": 7469,
      "staff": 7470,
      "Britain": 7471,
      "Mill": 7472,
      "likely": 7473,
      "slow": 7474,
      "useum": 7475,
      "decision": 7476,
      "lyr": 7477,
      "Film": 7478,
      "course": 7479,
      "subject": 7480,
      "hop": 7481,
      "spr": 7482,
      "money": 7483,
      "female": 7484,
      "ded": 7485,
      "Chin": 7486,
      "might": 7487,
      "sometimes": 7488,
      "espe": 7489,
      "limited": 7490,
      "surface": 7491,
      "fleet": 7492,
      "pan": 7493,
      "response": 7494,
      "food": 7495,
      "names": 7496,
      "icted": 7497,
      "magazine": 7498,
      "actions": 7499,
      "especially": 7500,
      "Pac": 7501,
      "nation": 7502,
      "flow": 7503,
      "36": 7504,
      "Later": 7505,
      "Di": 7506,
      "liament": 7507,
      "Victor": 7508,
      "estimated": 7509,
      "broadcast": 7510,
      "flood": 7511,
      "Championship": 7512,
      "carried": 7513,
      "bell": 7514,
      "Over": 7515,
      "consider": 7516,
      "ples": 7517,
      "worth": 7518,
      "Pat": 7519,
      "shows": 7520,
      "ror": 7521,
      "paren": 7522,
      "ena": 7523,
      "community": 7524,
      "guitar": 7525,
      "uded": 7526,
      "bot": 7527,
      "listed": 7528,
      "rate": 7529,
      "musical": 7530,
      "prepar": 7531,
      "text": 7532,
      "plant": 7533,
      "ises": 7534,
      "size": 7535,
      "scenes": 7536,
      "1999": 7537,
      "arrison": 7538,
      "related": 7539,
      "remaining": 7540,
      "37": 7541,
      "eastern": 7542,
      "isl": 7543,
      "minor": 7544,
      "yl": 7545,
      "Los": 7546,
      "emer": 7547,
      "venue": 7548,
      "personal": 7549,
      "natural": 7550,
      "becoming": 7551,
      "Early": 7552,
      "Virginia": 7553,
      "larger": 7554,
      "division": 7555,
      "media": 7556,
      "latter": 7557,
      "entered": 7558,
      "object": 7559,
      "favor": 7560,
      "yard": 7561,
      "rights": 7562,
      "suit": 7563,
      "doc": 7564,
      "police": 7565,
      "summer": 7566,
      "married": 7567,
      "suggested": 7568,
      "pressure": 7569,
      "approxim": 7570,
      "teams": 7571,
      "brief": 7572,
      "liter": 7573,
      "arrang": 7574,
      "Just": 7575,
      "burg": 7576,
      "adap": 7577,
      "iter": 7578,
      "mor": 7579,
      "Year": 7580,
      "ari": 7581,
      "daughter": 7582,
      "tax": 7583,
      "investig": 7584,
      "exper": 7585,
      "establish": 7586,
      "Jackson": 7587,
      "surround": 7588,
      "students": 7589,
      "kil": 7590,
      "Second": 7591,
      "temporary": 7592,
      "effects": 7593,
      "Chic": 7594,
      "Tex": 7595,
      "tons": 7596,
      "woman": 7597,
      "38": 7598,
      "prior": 7599,
      "episodes": 7600,
      "Ty": 7601,
      "If": 7602,
      "Flor": 7603,
      "Fle": 7604,
      "fit": 7605,
      "Cal": 7606,
      "Tour": 7607,
      "clim": 7608,
      "Oly": 7609,
      "Louis": 7610,
      "sett": 7611,
      "irth": 7612,
      "avo": 7613,
      "winning": 7614,
      "49": 7615,
      "32": 7616,
      "mode": 7617,
      "Green": 7618,
      "leaving": 7619,
      "Olymp": 7620,
      "destroyed": 7621,
      "ny": 7622,
      "viron": 7623,
      "selves": 7624,
      "tracks": 7625,
      "sons": 7626,
      "Lord": 7627,
      "join": 7628,
      "equip": 7629,
      "fail": 7630,
      "vie": 7631,
      "Club": 7632,
      "Spanish": 7633,
      "Aust": 7634,
      "Che": 7635,
      "reli": 7636,
      "mocr": 7637,
      "provide": 7638,
      "ander": 7639,
      "create": 7640,
      "relative": 7641,
      "igade": 7642,
      "territ": 7643,
      "polic": 7644,
      "aries": 7645,
      "idents": 7646,
      "qual": 7647,
      "spo": 7648,
      "proposed": 7649,
      "big": 7650,
      "intended": 7651,
      "influence": 7652,
      "Party": 7653,
      "overall": 7654,
      "verse": 7655,
      "captured": 7656,
      "Soviet": 7657,
      "burn": 7658,
      "ili": 7659,
      "moving": 7660,
      "Rob": 7661,
      "distr": 7662,
      "occas": 7663,
      "fully": 7664,
      "running": 7665,
      "Super": 7666,
      "artment": 7667,
      "supported": 7668,
      "Im": 7669,
      "lot": 7670,
      "ato": 7671,
      "Association": 7672,
      "thers": 7673,
      "escap": 7674,
      "quarter": 7675,
      "Del": 7676,
      "abs": 7677,
      "purch": 7678,
      "fell": 7679,
      "han": 7680,
      "Chicago": 7681,
      "expected": 7682,
      "mach": 7683,
      "ba": 7684,
      "ires": 7685,
      "nearly": 7686,
      "Many": 7687,
      "Love": 7688,
      "pread": 7689,
      "forward": 7690,
      "Lo": 7691,
      "syn": 7692,
      "helped": 7693,
      "movement": 7694,
      "1998": 7695,
      "stra": 7696,
      "Chinese": 7697,
      "awarded": 7698,
      "nu": 7699,
      "Song": 7700,
      "mixed": 7701,
      "bring": 7702,
      "commercial": 7703,
      "bey": 7704,
      "secut": 7705,
      "marked": 7706,
      "Council": 7707,
      "closed": 7708,
      "dy": 7709,
      "issued": 7710,
      "Oper": 7711,
      "experience": 7712,
      "consist": 7713,
      "185": 7714,
      "cit": 7715,
      "stars": 7716,
      "Record": 7717,
      "fish": 7718,
      "Go": 7719,
      "Edward": 7720,
      "dark": 7721,
      "phen": 7722,
      "Enter": 7723,
      "Ze": 7724,
      "planned": 7725,
      "dead": 7726,
      "breed": 7727,
      "34": 7728,
      "300": 7729,
      "hood": 7730,
      "done": 7731,
      "pow": 7732,
      "bility": 7733,
      "joy": 7734,
      "legal": 7735,
      "wing": 7736,
      "iple": 7737,
      "fans": 7738,
      "longer": 7739,
      "operation": 7740,
      "language": 7741,
      "attract": 7742,
      "higher": 7743,
      "bon": 7744,
      "Hu": 7745,
      "compared": 7746,
      "dig": 7747,
      "increasing": 7748,
      "leader": 7749,
      "lor": 7750,
      "cele": 7751,
      "bad": 7752,
      "deep": 7753,
      "olk": 7754,
      "Johnson": 7755,
      "touch": 7756,
      "Bal": 7757,
      "living": 7758,
      "approximately": 7759,
      "ience": 7760,
      "print": 7761,
      "feature": 7762,
      "temper": 7763,
      "fifth": 7764,
      "Back": 7765,
      "themselves": 7766,
      "Ir": 7767,
      "Art": 7768,
      "Kore": 7769,
      "History": 7770,
      "1st": 7771,
      "producer": 7772,
      "screen": 7773,
      "bury": 7774,
      "icles": 7775,
      "mostly": 7776,
      "48": 7777,
      "Pacific": 7778,
      "intens": 7779,
      "ams": 7780,
      "rica": 7781,
      "cu": 7782,
      "Billboard": 7783,
      "wa": 7784,
      "think": 7785,
      "operations": 7786,
      "Cro": 7787,
      "remains": 7788,
      "finan": 7789,
      "defeat": 7790,
      "orial": 7791,
      "chall": 7792,
      "appears": 7793,
      "mitted": 7794,
      "weap": 7795,
      "Mur": 7796,
      "buildings": 7797,
      "aught": 7798,
      "whether": 7799,
      "Under": 7800,
      "ender": 7801,
      "ked": 7802,
      "MS": 7803,
      "plot": 7804,
      "extended": 7805,
      "copies": 7806,
      "probably": 7807,
      "soldiers": 7808,
      "spired": 7809,
      "weight": 7810,
      "Arch": 7811,
      "voice": 7812,
      "Queen": 7813,
      "stream": 7814,
      "pose": 7815,
      "heav": 7816,
      "Squadron": 7817,
      "1997": 7818,
      "Since": 7819,
      "complex": 7820,
      "Tor": 7821,
      "roll": 7822,
      "portr": 7823,
      "Atlantic": 7824,
      "lyrics": 7825,
      "FA": 7826,
      "deb": 7827,
      "affe": 7828,
      "igr": 7829,
      "shoot": 7830,
      "fill": 7831,
      "jected": 7832,
      "transport": 7833,
      "battles": 7834,
      "really": 7835,
      "countries": 7836,
      "riage": 7837,
      "ban": 7838,
      "Test": 7839,
      "ospital": 7840,
      "ert": 7841,
      "boy": 7842,
      "39": 7843,
      "cm": 7844,
      "los": 7845,
      "suffered": 7846,
      "Law": 7847,
      "Lake": 7848,
      "andon": 7849,
      "Rad": 7850,
      "goals": 7851,
      "Sever": 7852,
      "Florida": 7853,
      "Tur": 7854,
      "demand": 7855,
      "cting": 7856,
      "includes": 7857,
      "Big": 7858,
      "health": 7859,
      "issues": 7860,
      "immediately": 7861,
      "rich": 7862,
      "capital": 7863,
      "Both": 7864,
      "cis": 7865,
      "47": 7866,
      "Sea": 7867,
      "manager": 7868,
      "private": 7869,
      "visit": 7870,
      "request": 7871,
      "Bet": 7872,
      "Jim": 7873,
      "Leg": 7874,
      "amed": 7875,
      "Jew": 7876,
      "officers": 7877,
      "colon": 7878,
      "Ot": 7879,
      "Mat": 7880,
      "flag": 7881,
      "target": 7882,
      "leave": 7883,
      "Fort": 7884,
      "bs": 7885,
      "ultim": 7886,
      "mat": 7887,
      "location": 7888,
      "gas": 7889,
      "aging": 7890,
      "mic": 7891,
      "Trans": 7892,
      "Station": 7893,
      "rat": 7894,
      "expand": 7895,
      "removed": 7896,
      "ado": 7897,
      "Texas": 7898,
      "flict": 7899,
      "increase": 7900,
      "yards": 7901,
      "fast": 7902,
      "birth": 7903,
      "Mr": 7904,
      "portion": 7905,
      "subsequently": 7906,
      "Old": 7907,
      "rd": 7908,
      "status": 7909,
      "plans": 7910,
      "Town": 7911,
      "ging": 7912,
      "always": 7913,
      "offered": 7914,
      "confir": 7915,
      "services": 7916,
      "Studi": 7917,
      "upper": 7918,
      "China": 7919,
      "Another": 7920,
      "Sci": 7921,
      "ously": 7922,
      "vey": 7923,
      "evolution": 7924,
      "How": 7925,
      "aker": 7926,
      "shire": 7927,
      "Mel": 7928,
      "problems": 7929,
      "attacks": 7930,
      "instr": 7931,
      "iser": 7932,
      "Earth": 7933,
      "demon": 7934,
      "mas": 7935,
      "tainment": 7936,
      "twent": 7937,
      "habit": 7938,
      "reser": 7939,
      "phy": 7940,
      "stitut": 7941,
      "forts": 7942,
      "terms": 7943,
      "aily": 7944,
      "something": 7945,
      "professional": 7946,
      "castle": 7947,
      "Pan": 7948,
      "carry": 7949,
      "administr": 7950,
      "village": 7951,
      "Boy": 7952,
      "takes": 7953,
      "mel": 7954,
      "contr": 7955,
      "Bra": 7956,
      "Rail": 7957,
      "majority": 7958,
      "iles": 7959,
      "Wood": 7960,
      "orning": 7961,
      "discover": 7962,
      "Emp": 7963,
      "discovered": 7964,
      "neg": 7965,
      "vironment": 7966,
      "Bow": 7967,
      "mouth": 7968,
      "makes": 7969,
      "Canadian": 7970,
      "job": 7971,
      "ranked": 7972,
      "concept": 7973,
      "composed": 7974,
      "beat": 7975,
      "cean": 7976,
      "Center": 7977,
      "assigned": 7978,
      "minute": 7979,
      "Africa": 7980,
      "oph": 7981,
      "elected": 7982,
      "adop": 7983,
      "otion": 7984,
      "uries": 7985,
      "damaged": 7986,
      "initial": 7987,
      "adium": 7988,
      "meeting": 7989,
      "ider": 7990,
      "zz": 7991,
      "chester": 7992,
      "Its": 7993,
      "olic": 7994,
      "RA": 7995,
      "nes": 7996,
      "DV": 7997,
      "ka": 7998,
      "onna": 7999,
      "ulated": 8000,
      "Van": 8001,
      "revealed": 8002,
      "individual": 8003,
      "ti": 8004,
      "Highway": 8005,
      "inspired": 8006,
      "Sir": 8007,
      "giving": 8008,
      "raised": 8009,
      "atives": 8010,
      "Russian": 8011,
      "46": 8012,
      "itect": 8013,
      "lived": 8014,
      "mist": 8015,
      "yet": 8016,
      "plays": 8017,
      "Carol": 8018,
      "Hal": 8019,
      "Hot": 8020,
      "necess": 8021,
      "ails": 8022,
      "heart": 8023,
      "inent": 8024,
      "Martin": 8025,
      "respectively": 8026,
      "associated": 8027,
      "grand": 8028,
      "uter": 8029,
      "Kent": 8030,
      "attacked": 8031,
      "actor": 8032,
      "Central": 8033,
      "numerous": 8034,
      "1995": 8035,
      "needed": 8036,
      "anch": 8037,
      "cers": 8038,
      "rout": 8039,
      "Angeles": 8040,
      "stitute": 8041,
      "Ver": 8042,
      "cand": 8043,
      "veh": 8044,
      "nature": 8045,
      "ulf": 8046,
      "Francis": 8047,
      "scient": 8048,
      "friends": 8049,
      "Cle": 8050,
      "pool": 8051,
      "distribut": 8052,
      "impact": 8053,
      "launched": 8054,
      "stitution": 8055,
      "constructed": 8056,
      "domin": 8057,
      "Cy": 8058,
      "conditions": 8059,
      "books": 8060,
      "occurred": 8061,
      "step": 8062,
      "information": 8063,
      "contains": 8064,
      "sales": 8065,
      "estival": 8066,
      "shown": 8067,
      "ech": 8068,
      "Congress": 8069,
      "attempted": 8070,
      "uals": 8071,
      "uments": 8072,
      "tur": 8073,
      "2nd": 8074,
      "exam": 8075,
      "Bob": 8076,
      "ications": 8077,
      "piece": 8078,
      "struction": 8079,
      "singer": 8080,
      "Mont": 8081,
      "Ru": 8082,
      "critical": 8083,
      "Prince": 8084,
      "2016": 8085,
      "secur": 8086,
      "kind": 8087,
      "whole": 8088,
      "dev": 8089,
      "premi": 8090,
      "Not": 8091,
      "1996": 8092,
      "19th": 8093,
      "cere": 8094,
      "Group": 8095,
      "Out": 8096,
      "mom": 8097,
      "1950": 8098,
      "Fer": 8099,
      "ioned": 8100,
      "farm": 8101,
      "depression": 8102,
      "ski": 8103,
      "bio": 8104,
      "letter": 8105,
      "earned": 8106,
      "referred": 8107,
      "produce": 8108,
      "Empire": 8109,
      "vention": 8110,
      "Produ": 8111,
      "Penn": 8112,
      "amount": 8113,
      "vic": 8114,
      "Camp": 8115,
      "render": 8116,
      "selected": 8117,
      "umed": 8118,
      "Sto": 8119,
      "numbers": 8120,
      "Jose": 8121,
      "houses": 8122,
      "distin": 8123,
      "finally": 8124,
      "inch": 8125,
      "smaller": 8126,
      "chief": 8127,
      "revol": 8128,
      "resulted": 8129,
      "gain": 8130,
      "advan": 8131,
      "fighting": 8132,
      "bank": 8133,
      "grant": 8134,
      "captain": 8135,
      "Italian": 8136,
      "ellow": 8137,
      "celebr": 8138,
      "Gar": 8139,
      "slight": 8140,
      "1994": 8141,
      "industry": 8142,
      "bul": 8143,
      "unit": 8144,
      "wound": 8145,
      "largely": 8146,
      "words": 8147,
      "Sol": 8148,
      "jun": 8149,
      "DVD": 8150,
      "coup": 8151,
      "oil": 8152,
      "commented": 8153,
      "dol": 8154,
      "ordin": 8155,
      "gent": 8156,
      "ify": 8157,
      "ipp": 8158,
      "Eli": 8159,
      "Corps": 8160,
      "Crit": 8161,
      "55": 8162,
      "sched": 8163,
      "audience": 8164,
      "izing": 8165,
      "notes": 8166,
      "acting": 8167,
      "education": 8168,
      "ift": 8169,
      "unable": 8170,
      "traditional": 8171,
      "spl": 8172,
      "trade": 8173,
      "artist": 8174,
      "iff": 8175,
      "Rh": 8176,
      "imm": 8177,
      "legisl": 8178,
      "Long": 8179,
      "atest": 8180,
      "directly": 8181,
      "Final": 8182,
      "improve": 8183,
      "lif": 8184,
      "double": 8185,
      "sister": 8186,
      "blood": 8187,
      "attention": 8188,
      "lav": 8189,
      "Viet": 8190,
      "refused": 8191,
      "lock": 8192,
      "ows": 8193,
      "carri": 8194,
      "mos": 8195,
      "positions": 8196,
      "ump": 8197,
      "180": 8198,
      "method": 8199,
      "newsp": 8200,
      "web": 8201,
      "royal": 8202,
      "primary": 8203,
      "ighter": 8204,
      "Command": 8205,
      "horse": 8206,
      "secret": 8207,
      "dro": 8208,
      "aland": 8209,
      "Hel": 8210,
      "Michigan": 8211,
      "Er": 8212,
      "achi": 8213,
      "alle": 8214,
      "quarters": 8215,
      "spect": 8216,
      "hero": 8217,
      "male": 8218,
      "train": 8219,
      "gradu": 8220,
      "below": 8221,
      "officer": 8222,
      "Mass": 8223,
      "science": 8224,
      "declared": 8225,
      "utch": 8226,
      "install": 8227,
      "enjoy": 8228,
      "Wales": 8229,
      "hi": 8230,
      "meant": 8231,
      "performances": 8232,
      "Sar": 8233,
      "religious": 8234,
      "More": 8235,
      "standard": 8236,
      "indic": 8237,
      "44": 8238,
      "Cath": 8239,
      "Republic": 8240,
      "ray": 8241,
      "undred": 8242,
      "owned": 8243,
      "middle": 8244,
      "commander": 8245,
      "ady": 8246,
      "conflict": 8247,
      "Gi": 8248,
      "repe": 8249,
      "regard": 8250,
      "Ox": 8251,
      "pul": 8252,
      "matches": 8253,
      "orders": 8254,
      "mes": 8255,
      "va": 8256,
      "Sup": 8257,
      "oo": 8258,
      "Care": 8259,
      "wear": 8260,
      "model": 8261,
      "records": 8262,
      "Democr": 8263,
      "Acad": 8264,
      "rated": 8265,
      "ipal": 8266,
      "thr": 8267,
      "Team": 8268,
      "Lin": 8269,
      "ya": 8270,
      "ett": 8271,
      "progress": 8272,
      "uten": 8273,
      "district": 8274,
      "antasy": 8275,
      "competition": 8276,
      "kes": 8277,
      "serious": 8278,
      "die": 8279,
      "Lit": 8280,
      "ranch": 8281,
      "session": 8282,
      "Mem": 8283,
      "severe": 8284,
      "vocals": 8285,
      "oft": 8286,
      "viewers": 8287,
      "northeast": 8288,
      "Minister": 8289,
      "drum": 8290,
      "Several": 8291,
      "1992": 8292,
      "Major": 8293,
      "wick": 8294,
      "Tre": 8295,
      "bing": 8296,
      "document": 8297,
      "abandon": 8298,
      "Chris": 8299,
      "energy": 8300,
      "miral": 8301,
      "rapid": 8302,
      "orm": 8303,
      "centre": 8304,
      "cases": 8305,
      "arrow": 8306,
      "atre": 8307,
      "forest": 8308,
      "Fore": 8309,
      "cam": 8310,
      "65": 8311,
      "dut": 8312,
      "continue": 8313,
      "traff": 8314,
      "atal": 8315,
      "thes": 8316,
      "theme": 8317,
      "iled": 8318,
      "Sum": 8319,
      "Time": 8320,
      "Four": 8321,
      "determin": 8322,
      "Fox": 8323,
      "ona": 8324,
      "writers": 8325,
      "Soci": 8326,
      "itation": 8327,
      "Bre": 8328,
      "aware": 8329,
      "favour": 8330,
      "ishop": 8331,
      "nearby": 8332,
      "highly": 8333,
      "kin": 8334,
      "adult": 8335,
      "Zealand": 8336,
      "separate": 8337,
      "combat": 8338,
      "Wall": 8339,
      "arts": 8340,
      "urt": 8341,
      "metal": 8342,
      "culture": 8343,
      "Mexico": 8344,
      "umn": 8345,
      "effort": 8346,
      "incorpor": 8347,
      "presented": 8348,
      "attended": 8349,
      "omen": 8350,
      "osen": 8351,
      "African": 8352,
      "reduced": 8353,
      "annual": 8354,
      "edition": 8355,
      "Haw": 8356,
      "20th": 8357,
      "practice": 8358,
      "ogue": 8359,
      "log": 8360,
      "except": 8361,
      "rossing": 8362,
      "1930": 8363,
      "Dou": 8364,
      "Dar": 8365,
      "girl": 8366,
      "means": 8367,
      "rang": 8368,
      "neigh": 8369,
      "levels": 8370,
      "divided": 8371,
      "McC": 8372,
      "ria": 8373,
      "contact": 8374,
      "tried": 8375,
      "movie": 8376,
      "oud": 8377,
      "ands": 8378,
      "ole": 8379,
      "thick": 8380,
      "marriage": 8381,
      "twenty": 8382,
      "1993": 8383,
      "architect": 8384,
      "Madonna": 8385,
      "accepted": 8386,
      "stating": 8387,
      "Stone": 8388,
      "maxim": 8389,
      "1991": 8390,
      "400": 8391,
      "pick": 8392,
      "aired": 8393,
      "serve": 8394,
      "SA": 8395,
      "fru": 8396,
      "bled": 8397,
      "responsible": 8398,
      "Fed": 8399,
      "quality": 8400,
      "ding": 8401,
      "iding": 8402,
      "candid": 8403,
      "charge": 8404,
      "direction": 8405,
      "Scotland": 8406,
      "seem": 8407,
      "eve": 8408,
      "advance": 8409,
      "rating": 8410,
      "innings": 8411,
      "Jones": 8412,
      "95": 8413,
      "pret": 8414,
      "psy": 8415,
      "rein": 8416,
      "Moun": 8417,
      "schools": 8418,
      "pit": 8419,
      "Their": 8420,
      "ieve": 8421,
      "network": 8422,
      "wealth": 8423,
      "function": 8424,
      "rare": 8425,
      "Simp": 8426,
      "managed": 8427,
      "passing": 8428,
      "rif": 8429,
      "hus": 8430,
      "sides": 8431,
      "Book": 8432,
      "lan": 8433,
      "ression": 8434,
      "Tim": 8435,
      "award": 8436,
      "illery": 8437,
      "Greek": 8438,
      "Rol": 8439,
      "Department": 8440,
      "Ba": 8441,
      "efforts": 8442,
      "college": 8443,
      "ites": 8444,
      "da": 8445,
      "Fre": 8446,
      "economic": 8447,
      "paid": 8448,
      "meaning": 8449,
      "asion": 8450,
      "resulting": 8451,
      "zer": 8452,
      "dropped": 8453,
      "utenant": 8454,
      "iving": 8455,
      "dem": 8456,
      "showed": 8457,
      "Kar": 8458,
      "guest": 8459,
      "lam": 8460,
      "Infantry": 8461,
      "mountain": 8462,
      "hall": 8463,
      "Three": 8464,
      "Men": 8465,
      "cust": 8466,
      "environment": 8467,
      "inside": 8468,
      "dan": 8469,
      "murder": 8470,
      "bly": 8471,
      "Sur": 8472,
      "voy": 8473,
      "kept": 8474,
      "oon": 8475,
      "ram": 8476,
      "chap": 8477,
      "nest": 8478,
      "Americ": 8479,
      "allowing": 8480,
      "cin": 8481,
      "Games": 8482,
      "osaur": 8483,
      "ceremon": 8484,
      "Bost": 8485,
      "winter": 8486,
      "cyclone": 8487,
      "waters": 8488,
      "controver": 8489,
      "begins": 8490,
      "Mic": 8491,
      "Commit": 8492,
      "sec": 8493,
      "variety": 8494,
      "morning": 8495,
      "ceeded": 8496,
      "settle": 8497,
      "Hor": 8498,
      "Williams": 8499,
      "arrest": 8500,
      "electric": 8501,
      "thur": 8502,
      "Up": 8503,
      "schol": 8504,
      "ores": 8505,
      "Service": 8506,
      "BA": 8507,
      "cus": 8508,
      "inches": 8509,
      "peror": 8510,
      "ami": 8511,
      "pal": 8512,
      "airs": 8513,
      "Creek": 8514,
      "Alli": 8515,
      "titled": 8516,
      "Stan": 8517,
      "path": 8518,
      "Records": 8519,
      "activity": 8520,
      "Post": 8521,
      "Will": 8522,
      "write": 8523,
      "continues": 8524,
      "rule": 8525,
      "drew": 8526,
      "dance": 8527,
      "rot": 8528,
      "symb": 8529,
      "isation": 8530,
      "News": 8531,
      "squadron": 8532,
      "SR": 8533,
      "ky": 8534,
      "Parliament": 8535,
      "founded": 8536,
      "source": 8537,
      "broke": 8538,
      "aven": 8539,
      "restr": 8540,
      "Foot": 8541,
      "pitch": 8542,
      "Oh": 8543,
      "phere": 8544,
      "parents": 8545,
      "sole": 8546,
      "hundred": 8547,
      "ott": 8548,
      "starting": 8549,
      "Ire": 8550,
      "conducted": 8551,
      "your": 8552,
      "ounds": 8553,
      "Egy": 8554,
      "vised": 8555,
      "strugg": 8556,
      "excl": 8557,
      "concert": 8558,
      "Society": 8559,
      "78": 8560,
      "ada": 8561,
      "1942": 8562,
      "presence": 8563,
      "spot": 8564,
      "64": 8565,
      "Bridge": 8566,
      "Southern": 8567,
      "metres": 8568,
      "plat": 8569,
      "IS": 8570,
      "iced": 8571,
      "Sil": 8572,
      "crow": 8573,
      "exhib": 8574,
      "Sat": 8575,
      "Ram": 8576,
      "sequence": 8577,
      "selling": 8578,
      "eth": 8579,
      "things": 8580,
      "Ev": 8581,
      "sa": 8582,
      "multiple": 8583,
      "contrast": 8584,
      "Arthur": 8585,
      "portun": 8586,
      "transferred": 8587,
      "companies": 8588,
      "deliver": 8589,
      "Committee": 8590,
      "foreign": 8591,
      "Georg": 8592,
      "collection": 8593,
      "enemy": 8594,
      "Latin": 8595,
      "pedo": 8596,
      "peaked": 8597,
      "Hung": 8598,
      "Govern": 8599,
      "Captain": 8600,
      "Cross": 8601,
      "content": 8602,
      "onic": 8603,
      "obtain": 8604,
      "mess": 8605,
      "stories": 8606,
      "recomm": 8607,
      "Like": 8608,
      "Oxford": 8609,
      "traffic": 8610,
      "becomes": 8611,
      "hu": 8612,
      "account": 8613,
      "ita": 8614,
      "Far": 8615,
      "Admiral": 8616,
      "Joseph": 8617,
      "Chief": 8618,
      "greater": 8619,
      "scoring": 8620,
      "loy": 8621,
      "vocal": 8622,
      "thir": 8623,
      "Secret": 8624,
      "calling": 8625,
      "concluded": 8626,
      "Den": 8627,
      "ito": 8628,
      "PA": 8629,
      "sky": 8630,
      "Harrison": 8631,
      "potential": 8632,
      "41": 8633,
      "birds": 8634,
      "property": 8635,
      "Boston": 8636,
      "attempts": 8637,
      "relatively": 8638,
      "creation": 8639,
      "strength": 8640,
      "demonstr": 8641,
      "Manchester": 8642,
      "extens": 8643,
      "sets": 8644,
      "observed": 8645,
      "primarily": 8646,
      "federal": 8647,
      "bles": 8648,
      "76": 8649,
      "fa": 8650,
      "prise": 8651,
      "Class": 8652,
      "actually": 8653,
      "Egypt": 8654,
      "Because": 8655,
      "Before": 8656,
      "financial": 8657,
      "Jeff": 8658,
      "animals": 8659,
      "propos": 8660,
      "journal": 8661,
      "Swed": 8662,
      "Life": 8663,
      "figure": 8664,
      "Hurricane": 8665,
      "Ken": 8666,
      "anna": 8667,
      "Dire": 8668,
      "yer": 8669,
      "opportun": 8670,
      "42": 8671,
      "tourn": 8672,
      "anger": 8673,
      "identified": 8674,
      "olf": 8675,
      "Commission": 8676,
      "featuring": 8677,
      "repair": 8678,
      "Dun": 8679,
      "ange": 8680,
      "stein": 8681,
      "istics": 8682,
      "1944": 8683,
      "scale": 8684,
      "mechan": 8685,
      "Fred": 8686,
      "Little": 8687,
      "missed": 8688,
      "share": 8689,
      "85": 8690,
      "withdraw": 8691,
      "situation": 8692,
      "annel": 8693,
      "prov": 8694,
      "Gil": 8695,
      "distance": 8696,
      "Brad": 8697,
      "versions": 8698,
      "Battalion": 8699,
      "independent": 8700,
      "43": 8701,
      "passeng": 8702,
      "extreme": 8703,
      "poet": 8704,
      "Ann": 8705,
      "thous": 8706,
      "resist": 8707,
      "150": 8708,
      "Paris": 8709,
      "lap": 8710,
      "BBC": 8711,
      "collabor": 8712,
      "inking": 8713,
      "inte": 8714,
      "here": 8715,
      "faced": 8716,
      "slightly": 8717,
      "image": 8718,
      "Series": 8719,
      "suppl": 8720,
      "replac": 8721,
      "Ca": 8722,
      "Line": 8723,
      "Max": 8724,
      "Wal": 8725,
      "arms": 8726,
      "color": 8727,
      "cient": 8728,
      "concent": 8729,
      "mob": 8730,
      "perial": 8731,
      "colour": 8732,
      "prop": 8733,
      "Bat": 8734,
      "torpedo": 8735,
      "seconds": 8736,
      "today": 8737,
      "Pop": 8738,
      "1990": 8739,
      "Vol": 8740,
      "alleg": 8741,
      "resh": 8742,
      "vation": 8743,
      "trial": 8744,
      "completely": 8745,
      "square": 8746,
      "Light": 8747,
      "Croat": 8748,
      "ultimately": 8749,
      "pack": 8750,
      "proved": 8751,
      "behav": 8752,
      "ki": 8753,
      "confirmed": 8754,
      "Histor": 8755,
      "maximum": 8756,
      "struck": 8757,
      "Gir": 8758,
      "beth": 8759,
      "blue": 8760,
      "tellig": 8761,
      "cher": 8762,
      "Stephen": 8763,
      "Academy": 8764,
      "master": 8765,
      "sought": 8766,
      "cities": 8767,
      "1920": 8768,
      "1945": 8769,
      "green": 8770,
      "policy": 8771,
      "boat": 8772,
      "dise": 8773,
      "weather": 8774,
      "serving": 8775,
      "society": 8776,
      "Museum": 8777,
      "Way": 8778,
      "minim": 8779,
      "Saint": 8780,
      "combined": 8781,
      "mainly": 8782,
      "HL": 8783,
      "commissioned": 8784,
      "din": 8785,
      "designated": 8786,
      "naval": 8787,
      "1941": 8788,
      "explained": 8789,
      "astic": 8790,
      "officials": 8791,
      "northwest": 8792,
      "conver": 8793,
      "influenced": 8794,
      "benef": 8795,
      "border": 8796,
      "ils": 8797,
      "eval": 8798,
      "vessel": 8799,
      "Entertainment": 8800,
      "powerful": 8801,
      "Italy": 8802,
      "illa": 8803,
      "Lee": 8804,
      "Ob": 8805,
      "batter": 8806,
      "Week": 8807,
      "alongside": 8808,
      "resol": 8809,
      "ses": 8810,
      "visions": 8811,
      "older": 8812,
      "CA": 8813,
      "Brigade": 8814,
      "ulations": 8815,
      "gained": 8816,
      "orses": 8817,
      "Americans": 8818,
      "lip": 8819,
      "sources": 8820,
      "systems": 8821,
      "Spr": 8822,
      "attend": 8823,
      "Arab": 8824,
      "battleship": 8825,
      "Hy": 8826,
      "says": 8827,
      "Han": 8828,
      "princ": 8829,
      "successfully": 8830,
      "ini": 8831,
      "organization": 8832,
      "seek": 8833,
      "background": 8834,
      "industri": 8835,
      "gency": 8836,
      "aga": 8837,
      "feed": 8838,
      "99": 8839,
      "adel": 8840,
      "peace": 8841,
      "goti": 8842,
      "Tod": 8843,
      "theory": 8844,
      "capture": 8845,
      "seg": 8846,
      "ota": 8847,
      "aling": 8848,
      "alone": 8849,
      "nominated": 8850,
      "ements": 8851,
      "artists": 8852,
      "bud": 8853,
      "edge": 8854,
      "reaching": 8855,
      "stay": 8856,
      "news": 8857,
      "encour": 8858,
      "dif": 8859,
      "problem": 8860,
      "Regiment": 8861,
      "elve": 8862,
      "promoted": 8863,
      "widely": 8864,
      "bass": 8865,
      "sust": 8866,
      "CD": 8867,
      "iano": 8868,
      "mond": 8869,
      "Middle": 8870,
      "SS": 8871,
      "results": 8872,
      "sexual": 8873,
      "husband": 8874,
      "Ireland": 8875,
      "Live": 8876,
      "Avenue": 8877,
      "travel": 8878,
      "smo": 8879,
      "acu": 8880,
      "brary": 8881,
      "Fleet": 8882,
      "vania": 8883,
      "albums": 8884,
      "offer": 8885,
      "subsequent": 8886,
      "Land": 8887,
      "greatest": 8888,
      "Mu": 8889,
      "roads": 8890,
      "IV": 8891,
      "Bor": 8892,
      "Ray": 8893,
      "invasion": 8894,
      "ols": 8895,
      "Os": 8896,
      "Otto": 8897,
      "officially": 8898,
      "1989": 8899,
      "tun": 8900,
      "fair": 8901,
      "affected": 8902,
      "sixth": 8903,
      "county": 8904,
      "Wind": 8905,
      "opin": 8906,
      "push": 8907,
      "southeast": 8908,
      "spring": 8909,
      "pilot": 8910,
      "1943": 8911,
      "shortly": 8912,
      "Lie": 8913,
      "theless": 8914,
      "contest": 8915,
      "true": 8916,
      "expressed": 8917,
      "shell": 8918,
      "MD": 8919,
      "Common": 8920,
      "appearances": 8921,
      "armed": 8922,
      "doing": 8923,
      "reception": 8924,
      "causing": 8925,
      "Mah": 8926,
      "mind": 8927,
      "represented": 8928,
      "Ry": 8929,
      "arent": 8930,
      "aded": 8931,
      "Victoria": 8932,
      "sense": 8933,
      "organized": 8934,
      "physical": 8935,
      "gi": 8936,
      "capac": 8937,
      "Catholic": 8938,
      "residents": 8939,
      "defense": 8940,
      "pieces": 8941,
      "teach": 8942,
      "core": 8943,
      "tells": 8944,
      "dog": 8945,
      "Tropical": 8946,
      "arian": 8947,
      "ansion": 8948,
      "syl": 8949,
      "Bus": 8950,
      "seasons": 8951,
      "600": 8952,
      "Valley": 8953,
      "itude": 8954,
      "intend": 8955,
      "laid": 8956,
      "negoti": 8957,
      "ategory": 8958,
      "rey": 8959,
      "semb": 8960,
      "hospital": 8961,
      "growth": 8962,
      "Ash": 8963,
      "kg": 8964,
      "ufact": 8965,
      "bodies": 8966,
      "avoid": 8967,
      "icient": 8968,
      "require": 8969,
      "actors": 8970,
      "Dutch": 8971,
      "pun": 8972,
      "Top": 8973,
      "77": 8974,
      "floor": 8975,
      "Show": 8976,
      "ached": 8977,
      "Though": 8978,
      "iron": 8979,
      "chair": 8980,
      "focus": 8981,
      "visited": 8982,
      "3rd": 8983,
      "fired": 8984,
      "Commun": 8985,
      "fellow": 8986,
      "plement": 8987,
      "inson": 8988,
      "arg": 8989,
      "atures": 8990,
      "advant": 8991,
      "eas": 8992,
      "artillery": 8993,
      "ahead": 8994,
      "weapons": 8995,
      "Football": 8996,
      "Good": 8997,
      "dition": 8998,
      "vote": 8999,
      "Rog": 9000,
      "ares": 9001,
      "Through": 9002,
      "oul": 9003,
      "Kenn": 9004,
      "usual": 9005,
      "Hum": 9006,
      "Jul": 9007,
      "question": 9008,
      "ysis": 9009,
      "eigh": 9010,
      "Gal": 9011,
      "marine": 9012,
      "Tay": 9013,
      "Young": 9014,
      "leaders": 9015,
      "Sub": 9016,
      "Well": 9017,
      "heavily": 9018,
      "Upon": 9019,
      "ote": 9020,
      "Mountain": 9021,
      "ingu": 9022,
      "phil": 9023,
      "1980s": 9024,
      "pedition": 9025,
      "1940": 9026,
      "anta": 9027,
      "spread": 9028,
      "student": 9029,
      "ronic": 9030,
      "apparent": 9031,
      "wave": 9032,
      "governor": 9033,
      "ustr": 9034,
      "studies": 9035,
      "Bul": 9036,
      "patter": 9037,
      "amber": 9038,
      "passes": 9039,
      "Def": 9040,
      "ici": 9041,
      "Ele": 9042,
      "sions": 9043,
      "executive": 9044,
      "protest": 9045,
      "mile": 9046,
      "Ill": 9047,
      "agreement": 9048,
      "catch": 9049,
      "Bey": 9050,
      "Daniel": 9051,
      "debuted": 9052,
      "cip": 9053,
      "table": 9054,
      "kilomet": 9055,
      "rical": 9056,
      "condition": 9057,
      "prominent": 9058,
      "setting": 9059,
      "instrument": 9060,
      "consisted": 9061,
      "injury": 9062,
      "figures": 9063,
      "begin": 9064,
      "ights": 9065,
      "wit": 9066,
      "Home": 9067,
      "equipment": 9068,
      "earth": 9069,
      "claims": 9070,
      "Of": 9071,
      "matter": 9072,
      "graphic": 9073,
      "negative": 9074,
      "believ": 9075,
      "necessary": 9076,
      "transl": 9077,
      "defend": 9078,
      "66": 9079,
      "argued": 9080,
      "sn": 9081,
      "preser": 9082,
      "Eliza": 9083,
      "otes": 9084,
      "Tele": 9085,
      "arden": 9086,
      "glo": 9087,
      "rick": 9088,
      "urban": 9089,
      "omy": 9090,
      "dated": 9091,
      "gal": 9092,
      "normal": 9093,
      "opposed": 9094,
      "Homer": 9095,
      "Civil": 9096,
      "Jon": 9097,
      "returning": 9098,
      "lic": 9099,
      "istrict": 9100,
      "contemporary": 9101,
      "ani": 9102,
      "1970s": 9103,
      "pict": 9104,
      "rig": 9105,
      "Ly": 9106,
      "ube": 9107,
      "Northern": 9108,
      "Main": 9109,
      "famous": 9110,
      "mut": 9111,
      "maintained": 9112,
      "deg": 9113,
      "kick": 9114,
      "frequently": 9115,
      "Pen": 9116,
      "1960s": 9117,
      "couple": 9118,
      "types": 9119,
      "paper": 9120,
      "aces": 9121,
      "acher": 9122,
      "stations": 9123,
      "Ha": 9124,
      "von": 9125,
      "Dev": 9126,
      "vor": 9127,
      "ockey": 9128,
      "god": 9129,
      "mann": 9130,
      "deck": 9131,
      "finish": 9132,
      "speech": 9133,
      "Tem": 9134,
      "District": 9135,
      "rect": 9136,
      "rum": 9137,
      "zy": 9138,
      "criticized": 9139,
      "activities": 9140,
      "TC": 9141,
      "Marsh": 9142,
      "heard": 9143,
      "machine": 9144,
      "Carolina": 9145,
      "folk": 9146,
      "Bond": 9147,
      "Ocean": 9148,
      "drug": 9149,
      "toward": 9150,
      "acts": 9151,
      "citiz": 9152,
      "occasion": 9153,
      "discuss": 9154,
      "tournament": 9155,
      "planet": 9156,
      "reference": 9157,
      "gam": 9158,
      "reign": 9159,
      "trees": 9160,
      "singles": 9161,
      "coal": 9162,
      "else": 9163,
      "ledge": 9164,
      "operated": 9165,
      "lers": 9166,
      "1987": 9167,
      "senior": 9168,
      "Scottish": 9169,
      "eway": 9170,
      "System": 9171,
      "medical": 9172,
      "AC": 9173,
      "aspect": 9174,
      "ano": 9175,
      "worldwide": 9176,
      "achieve": 9177,
      "ker": 9178,
      "territory": 9179,
      "trying": 9180,
      "Writ": 9181,
      "value": 9182,
      "eye": 9183,
      "Government": 9184,
      "1988": 9185,
      "awa": 9186,
      "Holly": 9187,
      "Fantasy": 9188,
      "Governor": 9189,
      "modif": 9190,
      "narr": 9191,
      "Colon": 9192,
      "holds": 9193,
      "Castle": 9194,
      "ette": 9195,
      "horses": 9196,
      "Jud": 9197,
      "Field": 9198,
      "gate": 9199,
      "Kr": 9200,
      "Operation": 9201,
      "hands": 9202,
      "Background": 9203,
      "imen": 9204,
      "treatment": 9205,
      "zed": 9206,
      "historian": 9207,
      "sembly": 9208,
      "stre": 9209,
      "views": 9210,
      "rainfall": 9211,
      "accident": 9212,
      "96": 9213,
      "shap": 9214,
      "looking": 9215,
      "university": 9216,
      "split": 9217,
      "crash": 9218,
      "therefore": 9219,
      "honor": 9220,
      "supply": 9221,
      "leaves": 9222,
      "grew": 9223,
      "challeng": 9224,
      "ij": 9225,
      "Duke": 9226,
      "Hard": 9227,
      "gian": 9228,
      "chosen": 9229,
      "championship": 9230,
      "assault": 9231,
      "Short": 9232,
      "mn": 9233,
      "ressed": 9234,
      "shore": 9235,
      "incident": 9236,
      "Studios": 9237,
      "twice": 9238,
      "rael": 9239,
      "cance": 9240,
      "Polish": 9241,
      "walls": 9242,
      "Lew": 9243,
      "Rod": 9244,
      "reports": 9245,
      "Bell": 9246,
      "stood": 9247,
      "Dam": 9248,
      "heads": 9249,
      "esc": 9250,
      "asket": 9251,
      "Mul": 9252,
      "consecut": 9253,
      "Senate": 9254,
      "escape": 9255,
      "offensive": 9256,
      "cou": 9257,
      "velopment": 9258,
      "teenth": 9259,
      "acted": 9260,
      "Eastern": 9261,
      "billion": 9262,
      "follows": 9263,
      "soundtrack": 9264,
      "Andrew": 9265,
      "stock": 9266,
      "pton": 9267,
      "rane": 9268,
      "manufact": 9269,
      "prompt": 9270,
      "launch": 9271,
      "editor": 9272,
      "street": 9273,
      "oting": 9274,
      "workers": 9275,
      "pursu": 9276,
      "schedul": 9277,
      "wounded": 9278,
      "edom": 9279,
      "surrounding": 9280,
      "steam": 9281,
      "contained": 9282,
      "ucky": 9283,
      "decre": 9284,
      "degree": 9285,
      "fuel": 9286,
      "wart": 9287,
      "herself": 9288,
      "Christmas": 9289,
      "typically": 9290,
      "bat": 9291,
      "Pennsyl": 9292,
      "WW": 9293,
      "Beat": 9294,
      "servation": 9295,
      "uth": 9296,
      "Wel": 9297,
      "tail": 9298,
      "symp": 9299,
      "Allied": 9300,
      "Columb": 9301,
      "Mean": 9302,
      "fiction": 9303,
      "lives": 9304,
      "cies": 9305,
      "Corn": 9306,
      "simply": 9307,
      "Wilson": 9308,
      "unknown": 9309,
      "rival": 9310,
      "ager": 9311,
      "ifying": 9312,
      "Tech": 9313,
      "element": 9314,
      "railway": 9315,
      "emphas": 9316,
      "dete": 9317,
      "regarded": 9318,
      "oration": 9319,
      "Taylor": 9320,
      "56": 9321,
      "chance": 9322,
      "Joe": 9323,
      "1986": 9324,
      "drive": 9325,
      "aud": 9326,
      "chose": 9327,
      "Down": 9328,
      "consecutive": 9329,
      "nothing": 9330,
      "Alexander": 9331,
      "authority": 9332,
      "currently": 9333,
      "Each": 9334,
      "cannot": 9335,
      "adapt": 9336,
      "Fam": 9337,
      "yle": 9338,
      "growing": 9339,
      "Blue": 9340,
      "brown": 9341,
      "newly": 9342,
      "cited": 9343,
      "tree": 9344,
      "spirit": 9345,
      "throw": 9346,
      "participated": 9347,
      "isters": 9348,
      "website": 9349,
      "mentioned": 9350,
      "casual": 9351,
      "creating": 9352,
      "grade": 9353,
      "Bon": 9354,
      "broken": 9355,
      "producers": 9356,
      "newspaper": 9357,
      "roof": 9358,
      "Ret": 9359,
      "compar": 9360,
      "risk": 9361,
      "experiment": 9362,
      "boats": 9363,
      "capacity": 9364,
      "extra": 9365,
      "losing": 9366,
      "firm": 9367,
      "advert": 9368,
      "Festival": 9369,
      "disp": 9370,
      "adopted": 9371,
      "filming": 9372,
      "advanced": 9373,
      "Sound": 9374,
      "ilies": 9375,
      "What": 9376,
      "clo": 9377,
      "Storm": 9378,
      "moment": 9379,
      "strike": 9380,
      "oppon": 9381,
      "Pennsylvania": 9382,
      "err": 9383,
      "door": 9384,
      "Night": 9385,
      "opposition": 9386,
      "initi": 9387,
      "imag": 9388,
      "ables": 9389,
      "Head": 9390,
      "basis": 9391,
      "Chart": 9392,
      "Bol": 9393,
      "oppos": 9394,
      "council": 9395,
      "Islands": 9396,
      "azz": 9397,
      "wel": 9398,
      "Liber": 9399,
      "sites": 9400,
      "uce": 9401,
      "chor": 9402,
      "plants": 9403,
      "aved": 9404,
      "58": 9405,
      "calls": 9406,
      "budget": 9407,
      "illy": 9408,
      "oe": 9409,
      "Mike": 9410,
      "fare": 9411,
      "Reception": 9412,
      "abandoned": 9413,
      "committee": 9414,
      "Ros": 9415,
      "Irish": 9416,
      "Further": 9417,
      "silver": 9418,
      "phas": 9419,
      "inth": 9420,
      "franch": 9421,
      "98": 9422,
      "flying": 9423,
      "fly": 9424,
      "tower": 9425,
      "ola": 9426,
      "bute": 9427,
      "accompan": 9428,
      "umber": 9429,
      "Albert": 9430,
      "otional": 9431,
      "filmed": 9432,
      "tery": 9433,
      "sections": 9434,
      "purpose": 9435,
      "Harry": 9436,
      "ners": 9437,
      "homes": 9438,
      "wild": 9439,
      "Coast": 9440,
      "rush": 9441,
      "Person": 9442,
      "Spain": 9443,
      "sail": 9444,
      "expansion": 9445,
      "Jersey": 9446,
      "ounger": 9447,
      "Pu": 9448,
      "Ron": 9449,
      "encounter": 9450,
      "sche": 9451,
      "landing": 9452,
      "possibly": 9453,
      "criticism": 9454,
      "auto": 9455,
      "individuals": 9456,
      "eration": 9457,
      "apers": 9458,
      "1990s": 9459,
      "beyond": 9460,
      "walk": 9461,
      "measure": 9462,
      "Square": 9463,
      "igg": 9464,
      "failure": 9465,
      "multi": 9466,
      "Kel": 9467,
      "lane": 9468,
      "deploy": 9469,
      "ero": 9470,
      "historical": 9471,
      "places": 9472,
      "draft": 9473,
      "killing": 9474,
      "Sand": 9475,
      "Origin": 9476,
      "nick": 9477,
      "ctic": 9478,
      "1939": 9479,
      "ques": 9480,
      "brid": 9481,
      "genus": 9482,
      "paralle": 9483,
      "Ven": 9484,
      "achieved": 9485,
      "sports": 9486,
      "ont": 9487,
      "occupied": 9488,
      "agg": 9489,
      "believe": 9490,
      "intellig": 9491,
      "eds": 9492,
      "management": 9493,
      "Elizabeth": 9494,
      "integr": 9495,
      "rooms": 9496,
      "roles": 9497,
      "Broad": 9498,
      "Public": 9499,
      "Sel": 9500,
      "Production": 9501,
      "narrow": 9502,
      "Republ": 9503,
      "wid": 9504,
      "retired": 9505,
      "ideas": 9506,
      "ko": 9507,
      "Institute": 9508,
      "Israel": 9509,
      "improved": 9510,
      "hair": 9511,
      "ancy": 9512,
      "disease": 9513,
      "perman": 9514,
      "Mir": 9515,
      "seat": 9516,
      "bom": 9517,
      "Due": 9518,
      "briefly": 9519,
      "Revolution": 9520,
      "Bart": 9521,
      "1985": 9522,
      "Si": 9523,
      "amin": 9524,
      "Liver": 9525,
      "1968": 9526,
      "porters": 9527,
      "effective": 9528,
      "administration": 9529,
      "granted": 9530,
      "perfect": 9531,
      "mounted": 9532,
      "repeated": 9533,
      "receive": 9534,
      "uff": 9535,
      "Ul": 9536,
      "personnel": 9537,
      "advantage": 9538,
      "Greg": 9539,
      "custom": 9540,
      "Meanwhile": 9541,
      "inf": 9542,
      "rejected": 9543,
      "Jes": 9544,
      "Republican": 9545,
      "unique": 9546,
      "twelve": 9547,
      "Clark": 9548,
      "gives": 9549,
      "Are": 9550,
      "hill": 9551,
      "kilometres": 9552,
      "rise": 9553,
      "Doctor": 9554,
      "iring": 9555,
      "extensive": 9556,
      "turns": 9557,
      "Album": 9558,
      "leadership": 9559,
      "52": 9560,
      "Bud": 9561,
      "interchange": 9562,
      "avalry": 9563,
      "Ohio": 9564,
      "Cub": 9565,
      "yst": 9566,
      "1970": 9567,
      "iana": 9568,
      "Sa": 9569,
      "data": 9570,
      "crossing": 9571,
      "experienced": 9572,
      "Ten": 9573,
      "Ve": 9574,
      "zil": 9575,
      "tend": 9576,
      "infantry": 9577,
      "entr": 9578,
      "evacu": 9579,
      "cé": 9580,
      "abin": 9581,
      "straight": 9582,
      "controlled": 9583,
      "Board": 9584,
      "expanded": 9585,
      "Hon": 9586,
      "ardi": 9587,
      "yellow": 9588,
      "forming": 9589,
      "solo": 9590,
      "describes": 9591,
      "afety": 9592,
      "NC": 9593,
      "champion": 9594,
      "Secretary": 9595,
      "alty": 9596,
      "choice": 9597,
      "adelph": 9598,
      "attribut": 9599,
      "iation": 9600,
      "note": 9601,
      "iments": 9602,
      "Arm": 9603,
      "1984": 9604,
      "psych": 9605,
      "allows": 9606,
      "acquired": 9607,
      "Rel": 9608,
      "sort": 9609,
      "didn": 9610,
      "credited": 9611,
      "oma": 9612,
      "animal": 9613,
      "kins": 9614,
      "fought": 9615,
      "surrender": 9616,
      "Philadelph": 9617,
      "ivity": 9618,
      "explos": 9619,
      "security": 9620,
      "determined": 9621,
      "ike": 9622,
      "Sher": 9623,
      "caught": 9624,
      "iday": 9625,
      "sac": 9626,
      "venture": 9627,
      "families": 9628,
      "vehicles": 9629,
      "Even": 9630,
      "oll": 9631,
      "suggests": 9632,
      "titles": 9633,
      "sle": 9634,
      "800": 9635,
      "lyn": 9636,
      "burgh": 9637,
      "Never": 9638,
      "shark": 9639,
      "mod": 9640,
      "drama": 9641,
      "Cambridge": 9642,
      "Georgia": 9643,
      "article": 9644,
      "haps": 9645,
      "sand": 9646,
      "Gall": 9647,
      "88": 9648,
      "commonly": 9649,
      "nuclear": 9650,
      "ancient": 9651,
      "eyes": 9652,
      "comedy": 9653,
      "guard": 9654,
      "Philadelphia": 9655,
      "seventh": 9656,
      "prefer": 9657,
      "Es": 9658,
      "acad": 9659,
      "Tro": 9660,
      "iful": 9661,
      "Ko": 9662,
      "powers": 9663,
      "agan": 9664,
      "anning": 9665,
      "holding": 9666,
      "labor": 9667,
      "authorities": 9668,
      "Hit": 9669,
      "wise": 9670,
      "contain": 9671,
      "connected": 9672,
      "headquarters": 9673,
      "store": 9674,
      "Chap": 9675,
      "attle": 9676,
      "Also": 9677,
      "1967": 9678,
      "centuries": 9679,
      "DS": 9680,
      "islands": 9681,
      "Ep": 9682,
      "Addition": 9683,
      "cultural": 9684,
      "Point": 9685,
      "Russia": 9686,
      "ux": 9687,
      "recently": 9688,
      "beaut": 9689,
      "97": 9690,
      "protected": 9691,
      "fields": 9692,
      "120": 9693,
      "Kir": 9694,
      "umes": 9695,
      "FL": 9696,
      "estic": 9697,
      "restling": 9698,
      "simple": 9699,
      "1980": 9700,
      "ries": 9701,
      "iny": 9702,
      "Mos": 9703,
      "Rose": 9704,
      "phone": 9705,
      "Pers": 9706,
      "Ottoman": 9707,
      "depict": 9708,
      "Among": 9709,
      "Liverpool": 9710,
      "finds": 9711,
      "wal": 9712,
      "Bas": 9713,
      "ule": 9714,
      "Nintend": 9715,
      "Ka": 9716,
      "Hay": 9717,
      "reput": 9718,
      "extr": 9719,
      "Jun": 9720,
      "Rus": 9721,
      "erc": 9722,
      "singing": 9723,
      "shop": 9724,
      "ounder": 9725,
      "Nintendo": 9726,
      "isa": 9727,
      "speak": 9728,
      "Lar": 9729,
      "hang": 9730,
      "Asia": 9731,
      "turret": 9732,
      "battalion": 9733,
      "cat": 9734,
      "aste": 9735,
      "approved": 9736,
      "bands": 9737,
      "orche": 9738,
      "Columbia": 9739,
      "dollar": 9740,
      "51": 9741,
      "Ind": 9742,
      "existing": 9743,
      "accompanied": 9744,
      "defence": 9745,
      "PC": 9746,
      "goes": 9747,
      "Miss": 9748,
      "height": 9749,
      "containing": 9750,
      "Jenn": 9751,
      "entirely": 9752,
      "Jean": 9753,
      "Prime": 9754,
      "arc": 9755,
      "protect": 9756,
      "Burn": 9757,
      "analysis": 9758,
      "scheduled": 9759,
      "Lincol": 9760,
      "Champion": 9761,
      "touchdown": 9762,
      "computer": 9763,
      "Singap": 9764,
      "contributed": 9765,
      "isers": 9766,
      "sun": 9767,
      "themes": 9768,
      "flooding": 9769,
      "Korean": 9770,
      "Development": 9771,
      "younger": 9772,
      "provides": 9773,
      "purchased": 9774,
      "57": 9775,
      "prising": 9776,
      "Brazil": 9777,
      "Op": 9778,
      "1983": 9779,
      "performing": 9780,
      "Lieutenant": 9781,
      "quite": 9782,
      "awards": 9783,
      "Gulf": 9784,
      "Mis": 9785,
      "locations": 9786,
      "conve": 9787,
      "mate": 9788,
      "sport": 9789,
      "myth": 9790,
      "Radio": 9791,
      "Jewish": 9792,
      "headed": 9793,
      "anda": 9794,
      "Anderson": 9795,
      "Die": 9796,
      "task": 9797,
      "defensive": 9798,
      "arrival": 9799,
      "End": 9800,
      "Francisco": 9801,
      "aka": 9802,
      "gather": 9803,
      "viewed": 9804,
      "motion": 9805,
      "resem": 9806,
      "engaged": 9807,
      "filled": 9808,
      "Singapore": 9809,
      "Order": 9810,
      "ceremony": 9811,
      "Lincoln": 9812,
      "illustr": 9813,
      "1964": 9814,
      "expedition": 9815,
      "formula": 9816,
      "People": 9817,
      "victim": 9818,
      "1969": 9819,
      "ju": 9820,
      "outs": 9821,
      "Office": 9822,
      "philos": 9823,
      "Dark": 9824,
      "ees": 9825,
      "Carey": 9826,
      "MA": 9827,
      "cles": 9828,
      "fresh": 9829,
      "employed": 9830,
      "asketball": 9831,
      "54": 9832,
      "dedicated": 9833,
      "etic": 9834,
      "dry": 9835,
      "joint": 9836,
      "cock": 9837,
      "án": 9838,
      "Gro": 9839,
      "Metro": 9840,
      "repl": 9841,
      "Disney": 9842,
      "why": 9843,
      "intensity": 9844,
      "ura": 9845,
      "Oli": 9846,
      "sens": 9847,
      "1914": 9848,
      "prepared": 9849,
      "1918": 9850,
      "Bank": 9851,
      "structures": 9852,
      "HMS": 9853,
      "Pet": 9854,
      "ec": 9855,
      "PlayStation": 9856,
      "motor": 9857,
      "industrial": 9858,
      "agement": 9859,
      "hydro": 9860,
      "Turn": 9861,
      "enge": 9862,
      "1982": 9863,
      "charged": 9864,
      "Brook": 9865,
      "defined": 9866,
      "Walter": 9867,
      "Six": 9868,
      "1971": 9869,
      "Brian": 9870,
      "recru": 9871,
      "escort": 9872,
      "egg": 9873,
      "Steve": 9874,
      "closely": 9875,
      "Miller": 9876,
      "Lewis": 9877,
      "comic": 9878,
      "consists": 9879,
      "1966": 9880,
      "drawn": 9881,
      "technology": 9882,
      "product": 9883,
      "Byz": 9884,
      "1972": 9885,
      "Conference": 9886,
      "piano": 9887,
      "union": 9888,
      "1979": 9889,
      "Sus": 9890,
      "focused": 9891,
      "Mod": 9892,
      "emb": 9893,
      "iet": 9894,
      "elimin": 9895,
      "protection": 9896,
      "Blo": 9897,
      "aly": 9898,
      "18th": 9899,
      "izes": 9900,
      "recover": 9901,
      "Once": 9902,
      "facilities": 9903,
      "supporting": 9904,
      "cars": 9905,
      "preced": 9906,
      "Olympic": 9907,
      "68": 9908,
      "tact": 9909,
      "kee": 9910,
      "rence": 9911,
      "ilton": 9912,
      "belong": 9913,
      "selection": 9914,
      "susp": 9915,
      "strip": 9916,
      "discus": 9917,
      "Byzant": 9918,
      "Grant": 9919,
      "visual": 9920,
      "uct": 9921,
      "branch": 9922,
      "Child": 9923,
      "shooting": 9924,
      "regions": 9925,
      "trail": 9926,
      "asc": 9927,
      "earch": 9928,
      "1965": 9929,
      "atom": 9930,
      "Railway": 9931,
      "NHL": 9932,
      "ii": 9933,
      "bac": 9934,
      "Emperor": 9935,
      "belief": 9936,
      "satis": 9937,
      "rupt": 9938,
      "Kh": 9939,
      "advis": 9940,
      "hired": 9941,
      "substant": 9942,
      "rear": 9943,
      "Water": 9944,
      "lb": 9945,
      "1975": 9946,
      "94": 9947,
      "opportunity": 9948,
      "ours": 9949,
      "recognized": 9950,
      "receiving": 9951,
      "correspond": 9952,
      "display": 9953,
      "knot": 9954,
      "conference": 9955,
      "strengthen": 9956,
      "Tam": 9957,
      "notable": 9958,
      "possess": 9959,
      "Jr": 9960,
      "trains": 9961,
      "Summer": 9962,
      "liber": 9963,
      "iance": 9964,
      "Germans": 9965,
      "composition": 9966,
      "Hollywood": 9967,
      "Bad": 9968,
      "Loc": 9969,
      "providing": 9970,
      "alternative": 9971,
      "Les": 9972,
      "tank": 9973,
      "UN": 9974,
      "tos": 9975,
      "resident": 9976,
      "ween": 9977,
      "Davis": 9978,
      "card": 9979,
      "merch": 9980,
      "1974": 9981,
      "Only": 9982,
      "charts": 9983,
      "agent": 9984,
      "Lan": 9985,
      "zen": 9986,
      "achu": 9987,
      "ads": 9988,
      "inger": 9989,
      "exter": 9990,
      "Indu": 9991,
      "Fall": 9992,
      "Serb": 9993,
      "Pit": 9994,
      "rapidly": 9995,
      "volume": 9996,
      "southwest": 9997,
      "1973": 9998,
      "Cur": 9999,
      "resc": 10000,
      "desc": 10001,
      "Dor": 10002,
      "digital": 10003,
      "publication": 10004,
      "Democratic": 10005,
      "ogy": 10006,
      "ES": 10007,
      "lake": 10008,
      "abo": 10009,
      "Lind": 10010,
      "uan": 10011,
      "shared": 10012,
      "anth": 10013,
      "Daily": 10014,
      "unting": 10015,
      "67": 10016,
      "casualties": 10017,
      "rie": 10018,
      "acks": 10019,
      "Lady": 10020,
      "constant": 10021,
      "highlight": 10022,
      "glass": 10023,
      "Between": 10024,
      "reaction": 10025,
      "label": 10026,
      "1976": 10027,
      "temperature": 10028,
      "53": 10029,
      "adding": 10030,
      "missing": 10031,
      "economy": 10032,
      "Jour": 10033,
      "IG": 10034,
      "steel": 10035,
      "icial": 10036,
      "Knight": 10037,
      "crimin": 10038,
      "Rome": 10039,
      "involve": 10040,
      "inal": 10041,
      "developing": 10042,
      "brand": 10043,
      "reflect": 10044,
      "letters": 10045,
      "IA": 10046,
      "250": 10047,
      "Mun": 10048,
      "inspir": 10049,
      "Ri": 10050,
      "symbol": 10051,
      "intersection": 10052,
      "oncé": 10053,
      "heim": 10054,
      "formal": 10055,
      "secondary": 10056,
      "Mount": 10057,
      "popularity": 10058,
      "hed": 10059,
      "raid": 10060,
      "eleven": 10061,
      "getting": 10062,
      "mast": 10063,
      "isol": 10064,
      "Special": 10065,
      "trip": 10066,
      "nic": 10067,
      "emic": 10068,
      "Nap": 10069,
      "hot": 10070,
      "ceived": 10071,
      "injured": 10072,
      "losses": 10073,
      "itled": 10074,
      "semi": 10075,
      "gro": 10076,
      "painting": 10077,
      "poll": 10078,
      "87": 10079,
      "franchise": 10080,
      "save": 10081,
      "witness": 10082,
      "Women": 10083,
      "portray": 10084,
      "significantly": 10085,
      "dram": 10086,
      "Naz": 10087,
      "exc": 10088,
      "Muslim": 10089,
      "ulate": 10090,
      "Arts": 10091,
      "knew": 10092,
      "ati": 10093,
      "abour": 10094,
      "math": 10095,
      "Bern": 10096,
      "remo": 10097,
      "unte": 10098,
      "grapher": 10099,
      "decor": 10100,
      "literature": 10101,
      "Beyoncé": 10102,
      "actress": 10103,
      "cricket": 10104,
      "Syd": 10105,
      "shape": 10106,
      "fash": 10107,
      "evin": 10108,
      "ully": 10109,
      "avig": 10110,
      "roughly": 10111,
      "distinct": 10112,
      "aer": 10113,
      "iers": 10114,
      "BS": 10115,
      "160": 10116,
      "regarding": 10117,
      "Ra": 10118,
      "brothers": 10119,
      "scientific": 10120,
      "anything": 10121,
      "mad": 10122,
      "Nick": 10123,
      "aug": 10124,
      "projects": 10125,
      "neighbor": 10126,
      "Colonel": 10127,
      "arranged": 10128,
      "bishop": 10129,
      "introduction": 10130,
      "resistance": 10131,
      "Prin": 10132,
      "udes": 10133,
      "cool": 10134,
      "ias": 10135,
      "gameplay": 10136,
      "Ell": 10137,
      "rog": 10138,
      "Pass": 10139,
      "annon": 10140,
      "Fair": 10141,
      "Press": 10142,
      "Supreme": 10143,
      "4th": 10144,
      "storyline": 10145,
      "Prote": 10146,
      "museum": 10147,
      "cells": 10148,
      "rules": 10149,
      "reasons": 10150,
      "AD": 10151,
      "distingu": 10152,
      "apt": 10153,
      "rhy": 10154,
      "plane": 10155,
      "Der": 10156,
      "daily": 10157,
      "awn": 10158,
      "Kentucky": 10159,
      "bid": 10160,
      "1946": 10161,
      "watched": 10162,
      "itors": 10163,
      "missions": 10164,
      "59": 10165,
      "shaped": 10166,
      "1981": 10167,
      "cruiser": 10168,
      "BN": 10169,
      "Mit": 10170,
      "accur": 10171,
      "trou": 10172,
      "stages": 10173,
      "istry": 10174,
      "turning": 10175,
      "Det": 10176,
      "perhaps": 10177,
      "laws": 10178,
      "enjoyed": 10179,
      "Nel": 10180,
      "acres": 10181,
      "recon": 10182,
      "renamed": 10183,
      "capable": 10184,
      "opinion": 10185,
      "1950s": 10186,
      "ultural": 10187,
      "asty": 10188,
      "appre": 10189,
      "setts": 10190,
      "declined": 10191,
      "estate": 10192,
      "Norway": 10193,
      "abilities": 10194,
      "converted": 10195,
      "Dream": 10196,
      "Gord": 10197,
      "reputation": 10198,
      "marks": 10199,
      "Whit": 10200,
      "stable": 10201,
      "1917": 10202,
      "publish": 10203,
      "Base": 10204,
      "Massachu": 10205,
      "dates": 10206,
      "Olympics": 10207,
      "ading": 10208,
      "agric": 10209,
      "poem": 10210,
      "retire": 10211,
      "CE": 10212,
      "Run": 10213,
      "ulpt": 10214,
      "genre": 10215,
      "Cir": 10216,
      "Elect": 10217,
      "ridge": 10218,
      "statement": 10219,
      "existence": 10220,
      "replace": 10221,
      "operating": 10222,
      "Philip": 10223,
      "zo": 10224,
      "Vide": 10225,
      "zone": 10226,
      "ride": 10227,
      "rol": 10228,
      "sie": 10229,
      "Massachusetts": 10230,
      "agu": 10231,
      "producing": 10232,
      "buried": 10233,
      "exact": 10234,
      "collected": 10235,
      "flat": 10236,
      "FC": 10237,
      "combination": 10238,
      "Ball": 10239,
      "depth": 10240,
      "knowledge": 10241,
      "limit": 10242,
      "Pict": 10243,
      "scholar": 10244,
      "bling": 10245,
      "increasingly": 10246,
      "iger": 10247,
      "graded": 10248,
      "asser": 10249,
      "amond": 10250,
      "approached": 10251,
      "lease": 10252,
      "Gree": 10253,
      "stadium": 10254,
      "Airport": 10255,
      "swe": 10256,
      "planning": 10257,
      "Independ": 10258,
      "Golden": 10259,
      "responded": 10260,
      "easily": 10261,
      "rob": 10262,
      "1948": 10263,
      "Rac": 10264,
      "expect": 10265,
      "equal": 10266,
      "1960": 10267,
      "settlement": 10268,
      "icks": 10269,
      "sects": 10270,
      "exerc": 10271,
      "About": 10272,
      "photograph": 10273,
      "ctors": 10274,
      "succeeded": 10275,
      "Ice": 10276,
      "models": 10277,
      "aust": 10278,
      "safety": 10279,
      "athan": 10280,
      "Earl": 10281,
      "humans": 10282,
      "Net": 10283,
      "learned": 10284,
      "borough": 10285,
      "Simpsons": 10286,
      "py": 10287,
      "platform": 10288,
      "sustained": 10289,
      "illi": 10290,
      "Init": 10291,
      "owner": 10292,
      "promotion": 10293,
      "Stand": 10294,
      "secure": 10295,
      "1978": 10296,
      "breeding": 10297,
      "AR": 10298,
      "baseball": 10299,
      "carrying": 10300,
      "indicated": 10301,
      "Songs": 10302,
      "700": 10303,
      "exchange": 10304,
      "uration": 10305,
      "showing": 10306,
      "ji": 10307,
      "youth": 10308,
      "crowd": 10309,
      "Hart": 10310,
      "ira": 10311,
      "Vietnam": 10312,
      "MTV": 10313,
      "Hugh": 10314,
      "ignment": 10315,
      "osis": 10316,
      "89": 10317,
      "lasted": 10318,
      "79": 10319,
      "paint": 10320,
      "violence": 10321,
      "Imperial": 10322,
      "Band": 10323,
      "univers": 10324,
      "Jay": 10325,
      "icate": 10326,
      "Cape": 10327,
      "Hun": 10328,
      "86": 10329,
      "entry": 10330,
      "seems": 10331,
      "trust": 10332,
      "athlet": 10333,
      "cold": 10334,
      "Form": 10335,
      "weakened": 10336,
      "cruisers": 10337,
      "1915": 10338,
      "tall": 10339,
      "designs": 10340,
      "Shortly": 10341,
      "ients": 10342,
      "reck": 10343,
      "safe": 10344,
      "inton": 10345,
      "proceed": 10346,
      "Poland": 10347,
      "ador": 10348,
      "Moore": 10349,
      "1977": 10350,
      "ruled": 10351,
      "freeway": 10352,
      "Sydney": 10353,
      "earliest": 10354,
      "Maryland": 10355,
      "Ari": 10356,
      "Who": 10357,
      "landfall": 10358,
      "description": 10359,
      "hr": 10360,
      "istan": 10361,
      "retained": 10362,
      "wich": 10363,
      "dial": 10364,
      "applied": 10365,
      "none": 10366,
      "ental": 10367,
      "grounds": 10368,
      "programs": 10369,
      "Naval": 10370,
      "assistant": 10371,
      "fix": 10372,
      "Bir": 10373,
      "page": 10374,
      "borne": 10375,
      "ampions": 10376,
      "ining": 10377,
      "reserve": 10378,
      "resour": 10379,
      "ophy": 10380,
      "playoff": 10381,
      "serves": 10382,
      "seas": 10383,
      "issance": 10384,
      "coastal": 10385,
      "writes": 10386,
      "Spring": 10387,
      "hits": 10388,
      "virt": 10389,
      "insula": 10390,
      "neut": 10391,
      "1963": 10392,
      "Fire": 10393,
      "domestic": 10394,
      "onym": 10395,
      "lee": 10396,
      "entrance": 10397,
      "sculpt": 10398,
      "iverse": 10399,
      "stret": 10400,
      "battery": 10401,
      "Tun": 10402,
      "strate": 10403,
      "exclus": 10404,
      "eff": 10405,
      "gall": 10406,
      "towns": 10407,
      "yo": 10408,
      "Matt": 10409,
      "candidate": 10410,
      "items": 10411,
      "heat": 10412,
      "1916": 10413,
      "aret": 10414,
      "breaking": 10415,
      "delivered": 10416,
      "elled": 10417,
      "camera": 10418,
      "Edu": 10419,
      "gradually": 10420,
      "wr": 10421,
      "solid": 10422,
      "politics": 10423,
      "stopped": 10424,
      "lets": 10425,
      "warm": 10426,
      "eman": 10427,
      "settled": 10428,
      "distribution": 10429,
      "interested": 10430,
      "aine": 10431,
      "independence": 10432,
      "apped": 10433,
      "ifications": 10434,
      "details": 10435,
      "cinem": 10436,
      "cler": 10437,
      "Confed": 10438,
      "minister": 10439,
      "Mulder": 10440,
      "Cont": 10441,
      "wan": 10442,
      "affect": 10443,
      "Kim": 10444,
      "fine": 10445,
      "aki": 10446,
      "pel": 10447,
      "equival": 10448,
      "Vo": 10449,
      "supplies": 10450,
      "copy": 10451,
      "foss": 10452,
      "parties": 10453,
      "Carl": 10454,
      "finding": 10455,
      "Gordon": 10456,
      "Pur": 10457,
      "Sul": 10458,
      "61": 10459,
      "72": 10460,
      "1919": 10461,
      "engines": 10462,
      "mical": 10463,
      "appeal": 10464,
      "decis": 10465,
      "refle": 10466,
      "rose": 10467,
      "prisoners": 10468,
      "Stadium": 10469,
      "Here": 10470,
      "Found": 10471,
      "Rhodes": 10472,
      "online": 10473,
      "campus": 10474,
      "Sav": 10475,
      "1962": 10476,
      "Ur": 10477,
      "Adams": 10478,
      "winner": 10479,
      "stic": 10480,
      "extremely": 10481,
      "entitled": 10482,
      "correct": 10483,
      "69": 10484,
      "Prof": 10485,
      "ima": 10486,
      "Premi": 10487,
      "hear": 10488,
      "Space": 10489,
      "agen": 10490,
      "izations": 10491,
      "convin": 10492,
      "decade": 10493,
      "acid": 10494,
      "Moon": 10495,
      "62": 10496,
      "inary": 10497,
      "Theatre": 10498,
      "inois": 10499,
      "consum": 10500,
      "fal": 10501,
      "regiment": 10502,
      "studied": 10503,
      "bourne": 10504,
      "imet": 10505,
[...]
